{
    "version": "1.0",
    "truncation": null,
    "padding": null,
    "added_tokens": [
        {
            "id": 0,
            "special": true,
            "content": "</s>",
            "single_word": false,
            "lstrip": false,
            "rstrip": false,
            "normalized": false
        },
        {
            "id": 1,
            "special": true,
            "content": "<unk>",
            "single_word": false,
            "lstrip": false,
            "rstrip": false,
            "normalized": false
        },
        {
            "id": 61586,
            "special": true,
            "content": "<pad>",
            "single_word": false,
            "lstrip": false,
            "rstrip": false,
            "normalized": false
        }
    ],
    "normalizer": {
        "type": "Precompiled",
        "precompiled_charsmap": null
    },
    "pre_tokenizer": {
        "type": "Sequence",
        "pretokenizers": [
            {
                "type": "WhitespaceSplit"
            },
            {
                "type": "Metaspace",
                "replacement": "\u2581",
                "add_prefix_space": true
            }
        ]
    },
    "post_processor": {
        "type": "TemplateProcessing",
        "single": [
            {
                "Sequence": {
                    "id": "A",
                    "type_id": 0
                }
            },
            {
                "SpecialToken": {
                    "id": "</s>",
                    "type_id": 0
                }
            }
        ],
        "pair": [
            {
                "Sequence": {
                    "id": "A",
                    "type_id": 0
                }
            },
            {
                "SpecialToken": {
                    "id": "</s>",
                    "type_id": 0
                }
            },
            {
                "Sequence": {
                    "id": "B",
                    "type_id": 0
                }
            },
            {
                "SpecialToken": {
                    "id": "</s>",
                    "type_id": 0
                }
            }
        ],
        "special_tokens": {
            "</s>": {
                "id": "</s>",
                "ids": [
                    0
                ],
                "tokens": [
                    "</s>"
                ]
            }
        }
    },
    "decoder": {
        "type": "Metaspace",
        "replacement": "\u2581",
        "add_prefix_space": true
    },
    "model": {
        "type": "Unigram",
        "unk_id": 2,
        "vocab": [
            [
                "</s>",
                0.0
            ],
            [
                "<unk>",
                0.0
            ],
            [
                ",",
                -2.8025448322296143
            ],
            [
                ".",
                -2.952671527862549
            ],
            [
                "\u2581the",
                -3.3455522060394287
            ],
            [
                "\u2581\"",
                -4.3629045486450195
            ],
            [
                "\u2581to",
                -3.810823678970337
            ],
            [
                "'",
                -4.087406635284424
            ],
            [
                "\u2581of",
                -3.9130144119262695
            ],
            [
                "?",
                -4.6116719245910645
            ],
            [
                "\u2581-",
                -4.721190452575684
            ],
            [
                "s",
                -4.034719944000244
            ],
            [
                "\u2581and",
                -4.182010173797607
            ],
            [
                "\u2581a",
                -4.216079235076904
            ],
            [
                "\u2581in",
                -4.40773344039917
            ],
            [
                "\u2581I",
                -4.477474212646484
            ],
            [
                "\u2581that",
                -4.558232307434082
            ],
            [
                "\u2581\u043d\u0435",
                -4.529791831970215
            ],
            [
                "\u2581you",
                -4.6081342697143555
            ],
            [
                "\u2581\u0456",
                -4.58216667175293
            ],
            [
                "\u2581\u0449\u043e",
                -4.647877216339111
            ],
            [
                "\u2581\u0432",
                -4.639394760131836
            ],
            [
                "\u2581\u043d\u0430",
                -4.64808464050293
            ],
            [
                "\u2581is",
                -4.705773830413818
            ],
            [
                "\u2581\u0437",
                -4.721792697906494
            ],
            [
                ":",
                -5.464118003845215
            ],
            [
                "\u2581\u0443",
                -4.9192304611206055
            ],
            [
                "!",
                -5.649167537689209
            ],
            [
                "\u2581it",
                -5.0838141441345215
            ],
            [
                "\u2581for",
                -5.122363567352295
            ],
            [
                "\u2581\u0434\u043e",
                -5.210564613342285
            ],
            [
                "\u0430",
                -5.18971586227417
            ],
            [
                "\u2581be",
                -5.300933837890625
            ],
            [
                "\u2581was",
                -5.372311115264893
            ],
            [
                "\u2581on",
                -5.383742332458496
            ],
            [
                "\u2581with",
                -5.389492988586426
            ],
            [
                "\u2581not",
                -5.447471618652344
            ],
            [
                "\u2581have",
                -5.451904296875
            ],
            [
                "t",
                -5.469878673553467
            ],
            [
                "\u2581are",
                -5.471626281738281
            ],
            [
                "\u2581we",
                -5.465263366699219
            ],
            [
                "\u2581this",
                -5.48211145401001
            ],
            [
                "\u2581",
                -5.657966613769531
            ],
            [
                "...",
                -6.261051654815674
            ],
            [
                "\u2581\u0437\u0430",
                -5.505090713500977
            ],
            [
                "\u0443",
                -5.462481498718262
            ],
            [
                "\u2581\u0446\u0435",
                -5.504903316497803
            ],
            [
                "\u0456",
                -5.435311794281006
            ],
            [
                "\u2581\u044f",
                -5.513750076293945
            ],
            [
                "\u2581The",
                -5.566544055938721
            ],
            [
                "\u2581\u042f",
                -5.544137954711914
            ],
            [
                "\u2581as",
                -5.658871650695801
            ],
            [
                "\u0438",
                -5.509725093841553
            ],
            [
                "\u2581\u043f\u0440\u043e",
                -5.582793712615967
            ],
            [
                "\u2581(",
                -6.193733215332031
            ],
            [
                "\u2581his",
                -5.697790145874023
            ],
            [
                "\u2581\u044f\u043a",
                -5.629349231719971
            ],
            [
                "\u2581.\"",
                -5.663607597351074
            ],
            [
                "\u2581he",
                -5.72874641418457
            ],
            [
                ";",
                -6.282350540161133
            ],
            [
                "\u2581\u0432\u0438",
                -5.746790885925293
            ],
            [
                "\u2581will",
                -5.7676897048950195
            ],
            [
                "\u2581God",
                -5.774708271026611
            ],
            [
                "-",
                -6.331639289855957
            ],
            [
                "\u2581can",
                -5.7867584228515625
            ],
            [
                "\u2581\u0442\u0430",
                -5.755067348480225
            ],
            [
                ")",
                -6.36386251449585
            ],
            [
                "\u2581from",
                -5.883023738861084
            ],
            [
                "\u2581by",
                -5.889586925506592
            ],
            [
                "\u2581\u0432\u0456\u0434",
                -5.861017227172852
            ],
            [
                "\u2581they",
                -5.909597396850586
            ],
            [
                "\u2581do",
                -5.924532413482666
            ],
            [
                "\u2581\u043c\u0438",
                -5.883202075958252
            ],
            [
                "\u2581Jehovah",
                -5.923169136047363
            ],
            [
                "\u2581your",
                -5.931272029876709
            ],
            [
                "\u2581or",
                -5.966433525085449
            ],
            [
                "\u2581me",
                -5.974228382110596
            ],
            [
                "\u2581what",
                -5.983278751373291
            ],
            [
                "\u0435",
                -5.928269386291504
            ],
            [
                "\u2581all",
                -5.998161315917969
            ],
            [
                "\u2581\u043f\u043e",
                -6.033088684082031
            ],
            [
                "\u2581\u0434\u043b\u044f",
                -5.98079252243042
            ],
            [
                "\u2581You",
                -6.039856910705566
            ],
            [
                "\u2581\u0454",
                -6.002319812774658
            ],
            [
                "\u2581at",
                -6.065433502197266
            ],
            [
                "\u2581one",
                -6.061631202697754
            ],
            [
                "\u2581\u0430",
                -6.0718255043029785
            ],
            [
                "\u2581\u0439\u043e\u0433\u043e",
                -6.049421310424805
            ],
            [
                "\u2581my",
                -6.108511924743652
            ],
            [
                "\u2581\u0423",
                -6.068449974060059
            ],
            [
                "\u2581\u0439",
                -6.059844970703125
            ],
            [
                "\u2581their",
                -6.140255928039551
            ],
            [
                "\u2581[",
                -6.818119049072266
            ],
            [
                "\u2581What",
                -6.148462772369385
            ],
            [
                "\u2581It",
                -6.209893226623535
            ],
            [
                "\u2581who",
                -6.193522930145264
            ],
            [
                "\u2581an",
                -6.212498664855957
            ],
            [
                "\u2581about",
                -6.21147346496582
            ],
            [
                "\u2581\u0449\u043e\u0431",
                -6.169986248016357
            ],
            [
                "\u043e",
                -6.1653923988342285
            ],
            [
                "\u2581\u0432\u0456\u043d",
                -6.189073085784912
            ],
            [
                "\u2581were",
                -6.252987861633301
            ],
            [
                "m",
                -6.274656772613525
            ],
            [
                "\u043c",
                -6.182498931884766
            ],
            [
                "\u0438\u0439",
                -6.2011590003967285
            ],
            [
                "\u2581And",
                -6.293350696563721
            ],
            [
                "re",
                -6.292726039886475
            ],
            [
                "\u2581our",
                -6.296065807342529
            ],
            [
                "\u2581had",
                -6.323022365570068
            ],
            [
                "\u2581\u0442\u0430\u043a",
                -6.2602620124816895
            ],
            [
                "\u2581&",
                -6.946115970611572
            ],
            [
                "\u2581them",
                -6.381477355957031
            ],
            [
                "\u2581has",
                -6.357583522796631
            ],
            [
                "\u2581but",
                -6.360171318054199
            ],
            [
                "\u2581him",
                -6.3717193603515625
            ],
            [
                "\u2581so",
                -6.371387004852295
            ],
            [
                "\u2581\u0432\u043e\u043d\u0438",
                -6.325190544128418
            ],
            [
                "ing",
                -6.367265224456787
            ],
            [
                "\u2581us",
                -6.379846572875977
            ],
            [
                "\u2581\u043a\u043e\u043b\u0438",
                -6.337305545806885
            ],
            [
                "\u2581would",
                -6.3993635177612305
            ],
            [
                "\u2581'",
                -6.5447797775268555
            ],
            [
                "\u2581out",
                -6.423799514770508
            ],
            [
                "\u2581there",
                -6.492114067077637
            ],
            [
                "\u2581people",
                -6.4550042152404785
            ],
            [
                "\u2581know",
                -6.438299655914307
            ],
            [
                "\u0438\u0445",
                -6.36477518081665
            ],
            [
                "\u2581\u0410",
                -6.44025182723999
            ],
            [
                "\u043e\u043c",
                -6.406350135803223
            ],
            [
                "\u0441\u044f",
                -6.443750858306885
            ],
            [
                "\u2581\u0442\u043e",
                -6.421745300292969
            ],
            [
                "\u2581up",
                -6.487748622894287
            ],
            [
                "\u0456\u0432",
                -6.455867290496826
            ],
            [
                "\u2581time",
                -6.470519542694092
            ],
            [
                "\u2581when",
                -6.4889702796936035
            ],
            [
                "\u2581Jesus",
                -6.490699291229248
            ],
            [
                "\u2581We",
                -6.51458740234375
            ],
            [
                "\u044f",
                -6.479460716247559
            ],
            [
                "\u2581Bible",
                -6.523960590362549
            ],
            [
                "\u2581\u044f\u043a\u0456",
                -6.469789028167725
            ],
            [
                "\u2581In",
                -6.552799701690674
            ],
            [
                "\u25811",
                -7.058329105377197
            ],
            [
                "\u2581\u0426\u0435",
                -6.507079124450684
            ],
            [
                "\u2581like",
                -6.54184627532959
            ],
            [
                "\u2581He",
                -6.561241149902344
            ],
            [
                "\u2581\u0406",
                -6.530681610107422
            ],
            [
                "\u2581if",
                -6.564162254333496
            ],
            [
                "\u2581\u0431\u0443\u043b\u043e",
                -6.5237298011779785
            ],
            [
                "\u2581just",
                -6.57355260848999
            ],
            [
                "\u044e",
                -6.563118934631348
            ],
            [
                "\u2581\u0442\u0438",
                -6.5735182762146
            ],
            [
                "\u2581\u0430\u0431\u043e",
                -6.551168441772461
            ],
            [
                "\u2581more",
                -6.616931915283203
            ],
            [
                "\u043e\u0433\u043e",
                -6.555460453033447
            ],
            [
                "]",
                -7.180370330810547
            ],
            [
                "\u2581\u0412\u0456\u043d",
                -6.597444534301758
            ],
            [
                "\u2581So",
                -6.661005020141602
            ],
            [
                "\u2581\u0431",
                -6.631692409515381
            ],
            [
                "\u0439",
                -6.62152624130249
            ],
            [
                "\u2581her",
                -6.658246040344238
            ],
            [
                "\u2581\u0436",
                -6.617527008056641
            ],
            [
                "\u2581\u0441",
                -6.673156261444092
            ],
            [
                "\u2581no",
                -6.666244029998779
            ],
            [
                "\u2581did",
                -6.6678786277771
            ],
            [
                "\u2581But",
                -6.678653717041016
            ],
            [
                "\u2581\u0447\u0438",
                -6.624746322631836
            ],
            [
                "\u2581A",
                -6.761765003204346
            ],
            [
                "\u2581This",
                -6.681856632232666
            ],
            [
                "\u2581\u0431\u0443\u0434\u0435",
                -6.650760650634766
            ],
            [
                "\u2581been",
                -6.697449207305908
            ],
            [
                "\u2581some",
                -6.707584381103516
            ],
            [
                "\u2581\u042f\u043a",
                -6.671572208404541
            ],
            [
                "\u2581\u0442\u0435",
                -6.695322513580322
            ],
            [
                "\u2581\u0430\u043b\u0435",
                -6.699938774108887
            ],
            [
                "d",
                -6.8440141677856445
            ],
            [
                "\u2581\u0442\u043e\u0433\u043e",
                -6.702881336212158
            ],
            [
                "\u2581\u043d\u0430\u0441",
                -6.727631568908691
            ],
            [
                "\u2581\u043c\u0435\u043d\u0435",
                -6.738618850708008
            ],
            [
                "\u2581\u0404\u0433\u043e\u0432\u0438",
                -6.728884220123291
            ],
            [
                "\u2581\u041d\u0435",
                -6.776129722595215
            ],
            [
                "\u2581\u0410\u043b\u0435",
                -6.750394344329834
            ],
            [
                "\u2581How",
                -6.790319442749023
            ],
            [
                "a",
                -7.249963283538818
            ],
            [
                "\u2581here",
                -6.822841644287109
            ],
            [
                "\u2581\u0432\u0441\u0435",
                -6.792330265045166
            ],
            [
                "\u2581\u0447\u0430\u0441",
                -6.75533390045166
            ],
            [
                "\u2581\u0431\u0443\u0432",
                -6.79898738861084
            ],
            [
                "\u2581\u043f\u0456\u0434",
                -6.7989702224731445
            ],
            [
                "\u2581life",
                -6.847792148590088
            ],
            [
                "\u2581may",
                -6.858335018157959
            ],
            [
                "\u2581how",
                -6.863833904266357
            ],
            [
                "\u0445",
                -6.827949047088623
            ],
            [
                "\u2581which",
                -6.863445281982422
            ],
            [
                "\u2581right",
                -6.849750995635986
            ],
            [
                "\u2581\u043b\u044e\u0434\u0435\u0439",
                -6.813066482543945
            ],
            [
                "\u2581get",
                -6.861842155456543
            ],
            [
                "\u2581don",
                -6.885139465332031
            ],
            [
                "\u2581\u043c\u043e\u0436\u0435",
                -6.82935905456543
            ],
            [
                "\u2581Tom",
                -6.883333206176758
            ],
            [
                "\u2581these",
                -6.8835649490356445
            ],
            [
                "\u2581see",
                -6.884561538696289
            ],
            [
                "\u2581,\"",
                -6.842570781707764
            ],
            [
                "\u2581\u0446\u044c\u043e\u0433\u043e",
                -6.851499080657959
            ],
            [
                "\u0457",
                -6.882163047790527
            ],
            [
                "\u2581\u0457\u0457",
                -6.875430583953857
            ],
            [
                "\u2581those",
                -6.922347545623779
            ],
            [
                "\u2581\u0447\u0442\u043e",
                -6.9089860916137695
            ],
            [
                "\u2581into",
                -6.923951625823975
            ],
            [
                "\u2581\u0436\u0438\u0442\u0442\u044f",
                -6.865734577178955
            ],
            [
                "\u2581\u0434\u0443\u0436\u0435",
                -6.885565757751465
            ],
            [
                "\u2581also",
                -6.929100036621094
            ],
            [
                "\u2581want",
                -6.9137654304504395
            ],
            [
                "\u2581\u041c\u0438",
                -6.905827045440674
            ],
            [
                "\u2581\u0442\u043e\u043c\u0443",
                -6.888907432556152
            ],
            [
                "\u2581could",
                -6.936491012573242
            ],
            [
                "ed",
                -6.989326477050781
            ],
            [
                "\u2581way",
                -6.918158531188965
            ],
            [
                "\u2581\u0412",
                -6.913363933563232
            ],
            [
                "\u2581\u0412\u0438",
                -6.932137966156006
            ],
            [
                "\u2581good",
                -6.942957878112793
            ],
            [
                "\u2581said",
                -6.944070816040039
            ],
            [
                "\u2581go",
                -6.9483771324157715
            ],
            [
                "\u0432",
                -6.8258867263793945
            ],
            [
                "\u0438\u043c",
                -6.881404876708984
            ],
            [
                "\u2581\u0457\u0445",
                -6.9113664627075195
            ],
            [
                "\u2581other",
                -6.939737796783447
            ],
            [
                "\u2581now",
                -6.9690842628479
            ],
            [
                "\u2581\u0429\u043e",
                -6.943033695220947
            ],
            [
                "\u2581They",
                -6.974542140960693
            ],
            [
                "\u2581than",
                -6.976030349731445
            ],
            [
                "ll",
                -6.974672794342041
            ],
            [
                "\u2581\u0449\u0435",
                -6.941709041595459
            ],
            [
                "\u2581she",
                -6.983981609344482
            ],
            [
                "\u2581\u0427\u0438",
                -6.954592227935791
            ],
            [
                "\u2581\u0431\u0443\u0442\u0438",
                -6.960353851318359
            ],
            [
                "\"",
                -7.441407680511475
            ],
            [
                "\u2581\u0442\u0430\u043a\u043e\u0436",
                -6.954780101776123
            ],
            [
                "\u2581That",
                -7.0214691162109375
            ],
            [
                "\u2581many",
                -7.033592224121094
            ],
            [
                "\u2581world",
                -7.03341007232666
            ],
            [
                "\u043d\u0456",
                -7.029697895050049
            ],
            [
                "\u2581No",
                -7.063853740692139
            ],
            [
                "\u0442\u0435",
                -7.041651248931885
            ],
            [
                "\u2581then",
                -7.062784671783447
            ],
            [
                "\u2581should",
                -7.043386936187744
            ],
            [
                "\u043e\u044e",
                -6.970147132873535
            ],
            [
                "\u2581over",
                -7.054594993591309
            ],
            [
                "\u2581\u043f\u0440\u0438",
                -7.057252407073975
            ],
            [
                "\u2581\u043d\u0430\u043c",
                -7.039623260498047
            ],
            [
                "\u0430\u043c\u0438",
                -7.03102445602417
            ],
            [
                "\u2581\u0422\u0430\u043a",
                -7.028531551361084
            ],
            [
                "\u2581man",
                -7.076528549194336
            ],
            [
                "\u2581\u0432\u043e\u043d\u0430",
                -7.02574348449707
            ],
            [
                "\u043d\u0430",
                -7.068996429443359
            ],
            [
                "\u2581\u0406\u0441\u0443\u0441",
                -7.010604381561279
            ],
            [
                "\u2581make",
                -7.059370040893555
            ],
            [
                "\u2581If",
                -7.073978424072266
            ],
            [
                "\u2581things",
                -7.084633827209473
            ],
            [
                "\u2581even",
                -7.071099281311035
            ],
            [
                "\u2581\u044f\u043a\u0438\u0439",
                -7.03351354598999
            ],
            [
                "\u2581\u043c\u0435\u043d\u0456",
                -7.045968055725098
            ],
            [
                "\u2581\u043c\u043e\u0436\u043d\u0430",
                -7.041988372802734
            ],
            [
                "\u2581only",
                -7.0846710205078125
            ],
            [
                "\u043e\u0457",
                -7.010258197784424
            ],
            [
                "\u2581\u0411\u043e\u0433",
                -7.042977333068848
            ],
            [
                "\u2581\u041d\u0430",
                -7.0661468505859375
            ],
            [
                "\u2581\u0417",
                -7.07224702835083
            ],
            [
                "\u2581such",
                -7.114889621734619
            ],
            [
                "\u0442",
                -7.14269495010376
            ],
            [
                "\u2581think",
                -7.0959343910217285
            ],
            [
                "\u2581\u0445\u0442\u043e",
                -7.078428268432617
            ],
            [
                "\u2581\u0422\u0438",
                -7.102611064910889
            ],
            [
                "\u2581because",
                -7.130112171173096
            ],
            [
                "\u2581\u044f\u043a\u0449\u043e",
                -7.093677520751953
            ],
            [
                "\u2581going",
                -7.131894111633301
            ],
            [
                "\u043c\u0438",
                -7.040943145751953
            ],
            [
                "\u2581\u042f\u043a\u0449\u043e",
                -7.094141006469727
            ],
            [
                "\u2581need",
                -7.12187385559082
            ],
            [
                "\u043a\u0430",
                -7.133872032165527
            ],
            [
                "\u2581work",
                -7.1308393478393555
            ],
            [
                "\u2581years",
                -7.164422512054443
            ],
            [
                "ve",
                -7.199929237365723
            ],
            [
                "\u2581first",
                -7.172088623046875
            ],
            [
                "\u2581help",
                -7.167919635772705
            ],
            [
                "\u2581very",
                -7.179782390594482
            ],
            [
                "\u2581\u0431\u0430\u0433\u0430\u0442\u043e",
                -7.13046407699585
            ],
            [
                "\u0441\u044c",
                -7.133111476898193
            ],
            [
                "\u2581\u0447\u0435\u0440\u0435\u0437",
                -7.125588893890381
            ],
            [
                "\u2581\u0404\u0433\u043e\u0432\u0430",
                -7.140632629394531
            ],
            [
                "\u2581\u0432\u0436\u0435",
                -7.153666019439697
            ],
            [
                "\u0448",
                -7.201685905456543
            ],
            [
                "\u2581does",
                -7.205987930297852
            ],
            [
                "\u2581\u0431\u0443\u043b\u0438",
                -7.163581848144531
            ],
            [
                "\u2581\u0432\u0430\u0441",
                -7.179964065551758
            ],
            [
                "\u2581\u0422\u043e\u043c",
                -7.1868743896484375
            ],
            [
                "\u0441",
                -7.252219200134277
            ],
            [
                "\u2581\u0442\u0435\u0431\u0435",
                -7.204352378845215
            ],
            [
                "\u2581Why",
                -7.2301459312438965
            ],
            [
                "\u2581\u0438",
                -7.253847122192383
            ],
            [
                "\u2581day",
                -7.220983505249023
            ],
            [
                "\u043a\u0438",
                -7.217206001281738
            ],
            [
                "\u2581\u0431\u0456\u043b\u044c\u0448\u0435",
                -7.194406986236572
            ],
            [
                "\u0442\u0438",
                -7.198057174682617
            ],
            [
                "\u2581come",
                -7.2396559715271
            ],
            [
                "\u2581\u0432\u0430\u043c",
                -7.224254608154297
            ],
            [
                "\u2581say",
                -7.243223190307617
            ],
            [
                "\u043c\u043e",
                -7.263287544250488
            ],
            [
                "\u2581take",
                -7.263751029968262
            ],
            [
                "\u2581\u041a\u043e\u043b\u0438",
                -7.225581645965576
            ],
            [
                "\u2581\u0441\u043a\u0430\u0437\u0430\u0432",
                -7.2432332038879395
            ],
            [
                "\u2581love",
                -7.278291702270508
            ],
            [
                "\u2581\u0411\u043e\u0433\u0430",
                -7.2486467361450195
            ],
            [
                "\u2581back",
                -7.306295394897461
            ],
            [
                "\u2581\u0412\u043e\u043d\u0438",
                -7.2616047859191895
            ],
            [
                "\u2581two",
                -7.309161186218262
            ],
            [
                "\u2581When",
                -7.323857307434082
            ],
            [
                "\u2581\u0417\u0430",
                -7.334714412689209
            ],
            [
                "\u2581\u0431\u043e",
                -7.311417579650879
            ],
            [
                "\u2581any",
                -7.334660530090332
            ],
            [
                ".\"",
                -7.988187313079834
            ],
            [
                "\u2581\u0440\u043e\u043a\u0456\u0432",
                -7.287107944488525
            ],
            [
                "\u043d\u0435",
                -7.339437961578369
            ],
            [
                "\u2581\u043b\u0438\u0448\u0435",
                -7.286838054656982
            ],
            [
                "\u25812",
                -7.878896713256836
            ],
            [
                "\u2581its",
                -7.526242256164551
            ],
            [
                "\u2581/",
                -7.696534156799316
            ],
            [
                "\u2581\u043e",
                -7.398336887359619
            ],
            [
                "\u2581\u043d\u0438\u0445",
                -7.3046088218688965
            ],
            [
                "\u043b\u0438",
                -7.339402198791504
            ],
            [
                "\u2581\u0442\u0443\u0442",
                -7.337639331817627
            ],
            [
                "\u2581\u0434\u0435",
                -7.325144290924072
            ],
            [
                "\u2581made",
                -7.3653388023376465
            ],
            [
                "\u043a\u0443",
                -7.40078592300415
            ],
            [
                "\u2581\u041f\u043e",
                -7.398771286010742
            ],
            [
                "\u2581\u043b\u044e\u0434\u0438",
                -7.319521427154541
            ],
            [
                "\u2581For",
                -7.3772358894348145
            ],
            [
                "\u2581being",
                -7.395005226135254
            ],
            [
                "ly",
                -7.437018394470215
            ],
            [
                "\u2581\u0437\u0456",
                -7.397018909454346
            ],
            [
                "\u2581page",
                -7.37721061706543
            ],
            [
                "\u2581new",
                -7.378682613372803
            ],
            [
                "e",
                -8.040814399719238
            ],
            [
                "\u2581much",
                -7.399295330047607
            ],
            [
                "\u2581\u0432\u0441\u0456",
                -7.363839626312256
            ],
            [
                "\u043e\u043c\u0443",
                -7.348535060882568
            ],
            [
                "\u2581where",
                -7.405950546264648
            ],
            [
                "\u2581really",
                -7.408133506774902
            ],
            [
                "\u2581got",
                -7.422224521636963
            ],
            [
                "\u2581earth",
                -7.415116310119629
            ],
            [
                "\u2581\u043d\u0430\u0432\u0456\u0442\u044c",
                -7.36209774017334
            ],
            [
                "n",
                -7.497189044952393
            ],
            [
                "\u2581down",
                -7.427812576293945
            ],
            [
                "\u2581\u0440\u043e\u043a\u0443",
                -7.394094467163086
            ],
            [
                "\u2581\u0442\u044b",
                -7.4126811027526855
            ],
            [
                "\u2581\u0456\u0437",
                -7.390627861022949
            ],
            [
                "\u2581must",
                -7.426910877227783
            ],
            [
                "\u0433\u043e",
                -7.362218379974365
            ],
            [
                "\u2581name",
                -7.498147964477539
            ],
            [
                "\u2581\u0431\u0443\u043b\u0430",
                -7.3889384269714355
            ],
            [
                "\u043b\u0430",
                -7.420762538909912
            ],
            [
                "\u2581well",
                -7.442450523376465
            ],
            [
                "\u2581\u0441\u0435\u0431\u0435",
                -7.396761417388916
            ],
            [
                "\u043c\u0443",
                -7.420560836791992
            ],
            [
                "\u2581\u043c\u0430\u0454",
                -7.405005931854248
            ],
            [
                "\u2581Witnesses",
                -7.449666976928711
            ],
            [
                "\u2581\u043f\u0440\u043e\u0441\u0442\u043e",
                -7.424250602722168
            ],
            [
                "\u0431",
                -7.463667392730713
            ],
            [
                "\u043d\u043e",
                -7.498312950134277
            ],
            [
                "\u2581Christ",
                -7.459587097167969
            ],
            [
                "\u2581Do",
                -7.491089820861816
            ],
            [
                "y",
                -7.90201473236084
            ],
            [
                "b",
                -7.78836727142334
            ],
            [
                "\u2581before",
                -7.467922210693359
            ],
            [
                "\u2581\u0446\u0435\u0439",
                -7.43873405456543
            ],
            [
                "\u0456\u0439",
                -7.442276954650879
            ],
            [
                "\u2581\u043e\u0431",
                -7.515486240386963
            ],
            [
                "er",
                -7.796335697174072
            ],
            [
                "\u0430\u0445",
                -7.443153381347656
            ],
            [
                "\u2581\u0419\u043e\u0433\u043e",
                -7.448633193969727
            ],
            [
                "\u2581\u0446\u0456",
                -7.438172817230225
            ],
            [
                "o",
                -7.916151523590088
            ],
            [
                "\u2581\u0427\u043e\u043c\u0443",
                -7.4600653648376465
            ],
            [
                "/",
                -8.064582824707031
            ],
            [
                "\u2581\u0421",
                -7.469156742095947
            ],
            [
                "\u2581There",
                -7.516130447387695
            ],
            [
                "\u2581\u0442\u0456\u043b\u044c\u043a\u0438",
                -7.47081995010376
            ],
            [
                "\u0438\u043c\u0438",
                -7.409554481506348
            ],
            [
                "\u2581says",
                -7.542048931121826
            ],
            [
                "\u2581let",
                -7.522243022918701
            ],
            [
                "\u2581after",
                -7.5286478996276855
            ],
            [
                "\u2581\u044d\u0442\u043e",
                -7.504880428314209
            ],
            [
                "\u2581\u043f\u0435\u0440\u0435",
                -7.535401344299316
            ],
            [
                "\u2581\u044f\u043a\u0430",
                -7.5222015380859375
            ],
            [
                "\u2581She",
                -7.546047210693359
            ],
            [
                "\u2581\u043f\u0435\u0440\u0435\u0434",
                -7.509571075439453
            ],
            [
                "i",
                -7.885444641113281
            ],
            [
                "\u2581As",
                -7.612359046936035
            ],
            [
                "\u2581children",
                -7.571884632110596
            ],
            [
                "\u2581something",
                -7.5743088722229
            ],
            [
                "\u2581Paul",
                -7.578793048858643
            ],
            [
                "\u2581\u043e\u0434\u0438\u043d",
                -7.5343756675720215
            ],
            [
                "\u2581through",
                -7.576724529266357
            ],
            [
                "\u2581use",
                -7.562887668609619
            ],
            [
                "I",
                -7.748770236968994
            ],
            [
                "\u2581too",
                -7.599440574645996
            ],
            [
                "\u2581\u043c\u043e\u0436\u0443\u0442\u044c",
                -7.537312030792236
            ],
            [
                "\u2581own",
                -7.597722053527832
            ],
            [
                "\u2581Christian",
                -7.591964244842529
            ],
            [
                "\u043d",
                -7.468573093414307
            ],
            [
                "\u2581\u043f",
                -7.581761360168457
            ],
            [
                "\u2581\u0422\u043e\u043c\u0443",
                -7.591118335723877
            ],
            [
                "\u2581\u0440\u043e\u0437",
                -7.623271465301514
            ],
            [
                "\u2581never",
                -7.627685546875
            ],
            [
                "\u2581little",
                -7.627590179443359
            ],
            [
                "\u2581family",
                -7.633302211761475
            ],
            [
                "\u2581give",
                -7.61618709564209
            ],
            [
                "%",
                -7.669652938842773
            ],
            [
                "S",
                -7.943653583526611
            ],
            [
                "\u0437",
                -7.676077365875244
            ],
            [
                "\u2581find",
                -7.634521484375
            ],
            [
                "\u2581most",
                -7.646049976348877
            ],
            [
                "\u2581\u043d\u0430\u0434",
                -7.602266311645508
            ],
            [
                "\u2581same",
                -7.663641929626465
            ],
            [
                "\u2581another",
                -7.674513816833496
            ],
            [
                "\u0442\u044c\u0441\u044f",
                -7.607298374176025
            ],
            [
                "\u2581\u041e",
                -7.677435398101807
            ],
            [
                "\u2581C",
                -8.033599853515625
            ],
            [
                "\u0442\u043e",
                -7.681061267852783
            ],
            [
                "\u2581used",
                -7.695934295654297
            ],
            [
                "\u2581\u0446\u044c\u043e\u043c\u0443",
                -7.652042865753174
            ],
            [
                "\u2581why",
                -7.703890800476074
            ],
            [
                "\u2581\u043d\u0456\u0436",
                -7.657463550567627
            ],
            [
                "\u0446\u0456",
                -7.755598068237305
            ],
            [
                "\u2581\u0441\u0442\u043e\u0440\u0456\u043d\u0446\u0456",
                -7.688251495361328
            ],
            [
                "\u2581look",
                -7.692358493804932
            ],
            [
                "\u2581\u0456\u043d\u0448\u0438\u0445",
                -7.6488189697265625
            ],
            [
                "\u2581\u0439\u043e\u043c\u0443",
                -7.658856391906738
            ],
            [
                "\u2581\u0457\u043c",
                -7.656980991363525
            ],
            [
                "\u2581might",
                -7.710150241851807
            ],
            [
                "\u2581times",
                -7.77324104309082
            ],
            [
                "\u0434",
                -7.697393417358398
            ],
            [
                "\u2581example",
                -7.700834274291992
            ],
            [
                "\u2581\u0441\u0432\u043e\u044e",
                -7.665083885192871
            ],
            [
                "\u2581Well",
                -7.7269062995910645
            ],
            [
                "\u2581others",
                -7.763160228729248
            ],
            [
                "\u2581\u0431\u0435\u0437",
                -7.722194671630859
            ],
            [
                "the",
                -7.7522735595703125
            ],
            [
                "\u2581\u0436\u0435",
                -7.724133014678955
            ],
            [
                "\u2581still",
                -7.728660583496094
            ],
            [
                "\u043a",
                -7.679017543792725
            ],
            [
                "\u2581\u0411\u0456\u0431\u043b\u0456\u0457",
                -7.667570114135742
            ],
            [
                "\u2581Oh",
                -7.743287086486816
            ],
            [
                "\u2581To",
                -7.770413398742676
            ],
            [
                "\u2581great",
                -7.743093013763428
            ],
            [
                "\u2581am",
                -7.813418865203857
            ],
            [
                "\u2581home",
                -7.739336013793945
            ],
            [
                "\u2581\u0412\u043e\u043d\u0430",
                -7.7068772315979
            ],
            [
                "\u2581\u0447\u043e\u043c\u0443",
                -7.7082743644714355
            ],
            [
                "\u2581men",
                -7.7610344886779785
            ],
            [
                "\u2581\u043c\u043e\u0436\u0435\u0442\u0435",
                -7.733631134033203
            ],
            [
                "\u2581doing",
                -7.772451400756836
            ],
            [
                "\u2581\u043f\u0456\u0441\u043b\u044f",
                -7.71199893951416
            ],
            [
                "\u2581true",
                -7.778171062469482
            ],
            [
                "\u2581Is",
                -8.387788772583008
            ],
            [
                "\u044c",
                -7.748198986053467
            ],
            [
                "\u043d\u0443",
                -7.727194786071777
            ],
            [
                "\u2581Yeah",
                -7.7795329093933105
            ],
            [
                "\u2581found",
                -7.767775535583496
            ],
            [
                "\u2581long",
                -7.773567199707031
            ],
            [
                "\u2581\u043d\u044c\u043e\u0433\u043e",
                -7.727268218994141
            ],
            [
                "\u2581\u0442\u043e\u0439",
                -7.734200954437256
            ],
            [
                "\u2581\u0437\u0435\u043c\u043b\u0456",
                -7.728403091430664
            ],
            [
                "\u2581\u041e\u0442\u0436\u0435",
                -7.753598213195801
            ],
            [
                "\u2581today",
                -7.784656047821045
            ],
            [
                "\u2581\u0431\u0438",
                -7.768530368804932
            ],
            [
                "\u2581year",
                -7.768744468688965
            ],
            [
                "\u2581\u0442\u0438\u0445",
                -7.748185634613037
            ],
            [
                "\u2581off",
                -7.801900386810303
            ],
            [
                "\u2581Kingdom",
                -7.799719333648682
            ],
            [
                "\u2581Yes",
                -7.802555084228516
            ],
            [
                "\u2581--",
                -8.097679138183594
            ],
            [
                "\u2581\u0442\u043e\u0434\u0456",
                -7.760909557342529
            ],
            [
                "\u2581\u0406\u0441\u0443\u0441\u0430",
                -7.766645908355713
            ],
            [
                "\u2581\u0441\u0432\u043e\u0433\u043e",
                -7.748856544494629
            ],
            [
                "\u2581each",
                -7.811522483825684
            ],
            [
                "\u2581\u041d\u0456",
                -7.80185604095459
            ],
            [
                "\u2581Christians",
                -7.836200714111328
            ],
            [
                "\u25813",
                -8.336053848266602
            ],
            [
                "\u2581\u043d\u0456",
                -7.786543369293213
            ],
            [
                "\u2581\u0440\u043e\u0431\u0438\u0442\u0438",
                -7.7848405838012695
            ],
            [
                "\u2581Let",
                -7.832769870758057
            ],
            [
                "\u2581\u0441\u0432\u043e\u0457\u0445",
                -7.761353492736816
            ],
            [
                "\u2581\u0434\u043e\u0431\u0440\u0435",
                -7.7837958335876465
            ],
            [
                "\u2581\u0441\u043b\u0456\u0434",
                -7.797974109649658
            ],
            [
                "\u2581part",
                -7.81252908706665
            ],
            [
                "\u2581put",
                -7.815649032592773
            ],
            [
                "\u2581thing",
                -7.814977169036865
            ],
            [
                "\u2581\u0442\u0430\u043c",
                -7.8194804191589355
            ],
            [
                "\u043d\u0438\u0439",
                -7.817699432373047
            ],
            [
                "\u2581\u0442\u043e\u0431\u0456",
                -7.814685821533203
            ],
            [
                "\u2581become",
                -7.826157569885254
            ],
            [
                "\u2581\u0437\u0440\u043e\u0431\u0438\u0442\u0438",
                -7.809244632720947
            ],
            [
                "\u2581All",
                -7.866000652313232
            ],
            [
                "\u2581\u044f\u043a\u0443",
                -7.8412184715271
            ],
            [
                "\u2581\u0437\u043d\u0430\u044e",
                -7.829533100128174
            ],
            [
                "\u2581\u0414\u043e",
                -7.838228702545166
            ],
            [
                ").",
                -7.947434902191162
            ],
            [
                "\u2581place",
                -7.833747863769531
            ],
            [
                "\u2581called",
                -7.85477352142334
            ],
            [
                "\u2581\u044f\u043a\u0438\u0445",
                -7.815835475921631
            ],
            [
                "\u2581faith",
                -7.855958461761475
            ],
            [
                "\u2581My",
                -7.859477996826172
            ],
            [
                "\u2581\u0447\u0430\u0441\u0443",
                -7.819368362426758
            ],
            [
                "\u2581\u0422\u044b",
                -7.853306770324707
            ],
            [
                "in",
                -8.245081901550293
            ],
            [
                "\u2581every",
                -7.868682384490967
            ],
            [
                "\u2581Now",
                -7.870781421661377
            ],
            [
                "\u2581away",
                -7.872374534606934
            ],
            [
                "\u2581death",
                -7.85512638092041
            ],
            [
                "\u2581didn",
                -7.878623008728027
            ],
            [
                "\u2581\u0442\u0435\u043f\u0435\u0440",
                -7.834456443786621
            ],
            [
                "\u2581One",
                -7.876678466796875
            ],
            [
                "E",
                -8.104516983032227
            ],
            [
                "\u2581spirit",
                -7.868752956390381
            ],
            [
                "\u2581\u0442\u0438\u043c",
                -7.846579074859619
            ],
            [
                "\u2581tell",
                -7.873928546905518
            ],
            [
                "\u2581three",
                -7.8949432373046875
            ],
            [
                "\u2581\u0446\u044e",
                -7.853207111358643
            ],
            [
                "\u2581person",
                -7.880258560180664
            ],
            [
                "\u2581under",
                -7.938479900360107
            ],
            [
                "\u043b\u043e",
                -7.88808536529541
            ],
            [
                "),",
                -8.935274124145508
            ],
            [
                "\u0454",
                -7.850489616394043
            ],
            [
                "\u0436",
                -8.031061172485352
            ],
            [
                "\u2581\u043c\u0456\u0436",
                -7.868579387664795
            ],
            [
                "\u258110",
                -8.423015594482422
            ],
            [
                "\u2581words",
                -7.929354667663574
            ],
            [
                "\u2581feel",
                -7.898699760437012
            ],
            [
                "c",
                -8.76611328125
            ],
            [
                "\u043b",
                -7.860888957977295
            ],
            [
                "\u2581\u0414\u0430",
                -7.921647548675537
            ],
            [
                "\u2581\u0449\u043e\u0441\u044c",
                -7.912464141845703
            ],
            [
                "\u043e\u043a",
                -7.9587297439575195
            ],
            [
                "\u2581again",
                -7.9275689125061035
            ],
            [
                "\u2581heart",
                -7.9139885902404785
            ],
            [
                "\u2581\u0442\u0440\u0435\u0431\u0430",
                -7.893252372741699
            ],
            [
                "\u2581\u043a\u0430\u0436\u0435",
                -7.886563777923584
            ],
            [
                "\u0442\u044c",
                -7.85871696472168
            ],
            [
                "\u258115",
                -8.38068675994873
            ],
            [
                "\u258120",
                -8.507803916931152
            ],
            [
                "\u2581human",
                -7.9200921058654785
            ],
            [
                "\u2581\u0434\u043e\u043f\u043e\u043c\u043e\u0433\u043e\u044e",
                -7.898915767669678
            ],
            [
                "\u043d\u0438\u0445",
                -7.915582656860352
            ],
            [
                "\u2581keep",
                -7.922936916351318
            ],
            [
                "\u2581\u0446\u0438\u0445",
                -7.891901969909668
            ],
            [
                "\u2581came",
                -7.944180011749268
            ],
            [
                "\u2581\u041f\u0430\u0432\u043b\u043e",
                -7.8828206062316895
            ],
            [
                "\u2581\u043e\u0442",
                -7.958298683166504
            ],
            [
                "\u2581end",
                -7.9334869384765625
            ],
            [
                "\u043d\u044f",
                -7.976853370666504
            ],
            [
                "\u2581mean",
                -7.9290690422058105
            ],
            [
                "\u2581\u043f\u043e\u0442\u0440\u0456\u0431\u043d\u043e",
                -7.916801929473877
            ],
            [
                "\u2581\u0442\u0456",
                -7.914437770843506
            ],
            [
                "\u0440",
                -7.943575382232666
            ],
            [
                "\u2581\u0441\u043e\u0431\u0456",
                -7.90906286239624
            ],
            [
                "\u2581\u0441\u043b\u043e\u0432\u0430",
                -7.904735088348389
            ],
            [
                "\u2581told",
                -7.9655561447143555
            ],
            [
                "\u2581\u043c\u043e\u0436\u0435\u043c\u043e",
                -7.933235168457031
            ],
            [
                "\u2581\u0411\u0456\u0431\u043b\u0456\u044f",
                -7.920644283294678
            ],
            [
                "\u2581old",
                -7.970576763153076
            ],
            [
                "\u0456\u0441\u0442\u044c",
                -7.9253621101379395
            ],
            [
                "\u2581ones",
                -8.110017776489258
            ],
            [
                "\u25815",
                -8.452059745788574
            ],
            [
                "\u2581course",
                -7.979870796203613
            ],
            [
                "\u2581book",
                -7.966957092285156
            ],
            [
                "\u2581\u0441\u0432\u043e\u0457",
                -7.914985179901123
            ],
            [
                "\u2581number",
                -7.975800514221191
            ],
            [
                "\u2581\u0431\u0443\u0434\u044c",
                -7.943908214569092
            ],
            [
                "\u2581\u043d\u0456\u043a\u043e\u043b\u0438",
                -7.949073791503906
            ],
            [
                "\u2581\u0431\u0443\u0434\u0443\u0442\u044c",
                -7.948761940002441
            ],
            [
                "\u2581last",
                -7.9948906898498535
            ],
            [
                "\u2581John",
                -8.002750396728516
            ],
            [
                "\u2581\u0432\u044b",
                -8.016908645629883
            ],
            [
                "\u2581\u0441\u044c\u043e\u0433\u043e\u0434\u043d\u0456",
                -7.958776950836182
            ],
            [
                "\u2581\u0411\u043e\u0436\u0435",
                -7.963003635406494
            ],
            [
                "\u2581\u0437\u0430\u0432\u0436\u0434\u0438",
                -7.963856220245361
            ],
            [
                "\u043c\u0435",
                -7.997629165649414
            ],
            [
                "\u2581against",
                -8.010786056518555
            ],
            [
                "\u2581left",
                -8.011460304260254
            ],
            [
                "\u2581show",
                -7.99812650680542
            ],
            [
                "\u2581gonna",
                -8.01461124420166
            ],
            [
                "C",
                -8.583125114440918
            ],
            [
                "\u2581kind",
                -7.994333267211914
            ],
            [
                "\u0433",
                -8.009973526000977
            ],
            [
                "\u0443\u0432\u0430\u0442\u0438",
                -8.074448585510254
            ],
            [
                "\u2581means",
                -8.04098129272461
            ],
            [
                "th",
                -8.251120567321777
            ],
            [
                "\u0438\u0442\u044c",
                -8.071043968200684
            ],
            [
                "\u2581always",
                -8.02934455871582
            ],
            [
                "\u2581\u0434\u0456\u0442\u0435\u0439",
                -7.972782135009766
            ],
            [
                "\u2581\u0441\u0430\u043c\u0435",
                -7.991631031036377
            ],
            [
                "\u2581set",
                -8.031365394592285
            ],
            [
                "\u2581\u043f\u043e\u0432\u0438\u043d\u043d\u0456",
                -7.993353366851807
            ],
            [
                "\u2581B",
                -8.395956039428711
            ],
            [
                "\u2581...",
                -8.447312355041504
            ],
            [
                "\u2581parents",
                -8.048933029174805
            ],
            [
                "\u2581congregation",
                -8.030625343322754
            ],
            [
                "\u2581spiritual",
                -8.047954559326172
            ],
            [
                "\u0437\u0430",
                -8.139488220214844
            ],
            [
                "\u0438\u0442\u0438",
                -8.042750358581543
            ],
            [
                "\u2581thought",
                -8.042601585388184
            ],
            [
                "\u2581\u043c\u0430\u044e\u0442\u044c",
                -8.004130363464355
            ],
            [
                "al",
                -8.473630905151367
            ],
            [
                "\u2581Picture",
                -8.043012619018555
            ],
            [
                "\u2581\u043c\u0435\u043d\u044f",
                -8.054327011108398
            ],
            [
                "\u2581around",
                -8.07089614868164
            ],
            [
                "\u2581\u0445\u043e\u0447\u0443",
                -8.054450988769531
            ],
            [
                "\u25814",
                -8.619318962097168
            ],
            [
                "\u2581\u044f\u043a\u0435",
                -8.059556007385254
            ],
            [
                "\u2581\u0418",
                -8.080475807189941
            ],
            [
                "\u2581\u042d\u0442\u043e",
                -8.073472023010254
            ],
            [
                "\u2581S",
                -8.690500259399414
            ],
            [
                "\u2581without",
                -8.089567184448242
            ],
            [
                "\u2581himself",
                -8.098050117492676
            ],
            [
                "\u2581Mary",
                -8.103370666503906
            ],
            [
                "\u2581house",
                -8.082023620605469
            ],
            [
                "\u2581K",
                -8.916316986083984
            ],
            [
                "\u2581actually",
                -8.100400924682617
            ],
            [
                "\u2581live",
                -8.085342407226562
            ],
            [
                "\u2581Then",
                -8.11402416229248
            ],
            [
                "\u2581different",
                -8.10527229309082
            ],
            [
                "\u2581\u043c\u0430\u0442\u0438",
                -8.06071662902832
            ],
            [
                "\u2581better",
                -8.113425254821777
            ],
            [
                "\u2581days",
                -8.158197402954102
            ],
            [
                "\u2581\u0440\u0430\u0437",
                -8.094755172729492
            ],
            [
                "\u2581done",
                -8.115913391113281
            ],
            [
                "\u2581*",
                -8.3851900100708
            ],
            [
                "\u2581\u0434\u0435\u043d\u044c",
                -8.073385238647461
            ],
            [
                "\u2581young",
                -8.116686820983887
            ],
            [
                "\u043d\u0438",
                -8.105446815490723
            ],
            [
                "\u2581\u0442\u0430\u043a\u0456",
                -8.095741271972656
            ],
            [
                "\u2581New",
                -8.144230842590332
            ],
            [
                "\u2581\u0456\u043d\u0448\u0456",
                -8.066225051879883
            ],
            [
                "\u044b",
                -8.094833374023438
            ],
            [
                "\u2581\u0432\u0441\u0456\u0445",
                -8.086897850036621
            ],
            [
                "\u2581between",
                -8.132709503173828
            ],
            [
                "\u2581\u0441\u0432\u0456\u0442\u0456",
                -8.074738502502441
            ],
            [
                "\u2581read",
                -8.108622550964355
            ],
            [
                "\u2581truth",
                -8.113668441772461
            ],
            [
                "\u043b\u044c",
                -8.242258071899414
            ],
            [
                "\u2581\u0446\u0456\u0454\u0457",
                -8.081570625305176
            ],
            [
                "\u2581\u041d\u0443",
                -8.120594024658203
            ],
            [
                "\u2581upon",
                -8.134248733520508
            ],
            [
                "\u2581Are",
                -8.141639709472656
            ],
            [
                "\u2581while",
                -8.13465690612793
            ],
            [
                "\u2581\u041f\u0440\u043e",
                -8.126479148864746
            ],
            [
                "\u2581\u0441\u0456\u043c",
                -8.077085494995117
            ],
            [
                "\u2581word",
                -8.134507179260254
            ],
            [
                "\u2581talk",
                -8.122469902038574
            ],
            [
                "\u2581\u0441\u0432\u0456\u0442\u0443",
                -8.097756385803223
            ],
            [
                "--",
                -8.287585258483887
            ],
            [
                "\u2581Your",
                -8.142855644226074
            ],
            [
                "\u2581\u044f\u043a\u043e\u0433\u043e",
                -8.118504524230957
            ],
            [
                "r",
                -8.417725563049316
            ],
            [
                "\u2581able",
                -8.154799461364746
            ],
            [
                "\u0448\u0438",
                -8.193248748779297
            ],
            [
                "\u2581study",
                -8.157341003417969
            ],
            [
                "\u2581both",
                -8.157391548156738
            ],
            [
                "\u2581\u0440",
                -8.090351104736328
            ],
            [
                "\u2581\u266a",
                -8.68629264831543
            ],
            [
                "\u2581\u043b\u044e\u0431\u043e\u0432",
                -8.09902286529541
            ],
            [
                "\u25818",
                -8.69585132598877
            ],
            [
                "\u2581\u041c\u0435\u043d\u0456",
                -8.136696815490723
            ],
            [
                "\u2581\u0456\u043c",
                -8.211666107177734
            ],
            [
                "\u2581\u043e\u0434\u043d\u043e\u0433\u043e",
                -8.114974021911621
            ],
            [
                "\u2581At",
                -8.200231552124023
            ],
            [
                "\u2581system",
                -8.154372215270996
            ],
            [
                "\u2581\u041e\u0434\u043d\u0430\u043a",
                -8.11233901977539
            ],
            [
                "\u2581ever",
                -8.175589561462402
            ],
            [
                "\u2581\u043a",
                -8.151232719421387
            ],
            [
                "\u2581often",
                -8.179415702819824
            ],
            [
                "\u2581mind",
                -8.160382270812988
            ],
            [
                "\u2581\u043a\u0430\u043a",
                -8.166740417480469
            ],
            [
                "\u25813:",
                -8.555001258850098
            ],
            [
                "\u2581\u0441\u0432\u043e\u0454",
                -8.122440338134766
            ],
            [
                "\u2581money",
                -8.18350601196289
            ],
            [
                "\u0442\u0430",
                -8.173480987548828
            ],
            [
                "\u2581file",
                -8.199516296386719
            ],
            [
                "\u2581important",
                -8.187760353088379
            ],
            [
                "\u2581Some",
                -8.18942928314209
            ],
            [
                "\u2581sure",
                -8.188542366027832
            ],
            [
                "\u25812:",
                -8.582477569580078
            ],
            [
                "\u043b\u0456",
                -8.182236671447754
            ],
            [
                "\u2581\u043c\u0430\u0432",
                -8.13230037689209
            ],
            [
                "\u2581\u0433\u043e\u0432\u043e\u0440\u0438\u0442\u044c",
                -8.150333404541016
            ],
            [
                "\u043d\u043e\u0433\u043e",
                -8.150847434997559
            ],
            [
                "\u2581though",
                -8.194270133972168
            ],
            [
                "\u043e\u0432",
                -8.242364883422852
            ],
            [
                "\u2581hope",
                -8.191483497619629
            ],
            [
                "\u2581Who",
                -8.208281517028809
            ],
            [
                "\u043d\u0438\u043c",
                -8.228233337402344
            ],
            [
                "\u2581s",
                -8.863965034484863
            ],
            [
                "\u2581\u0430\u0431\u0438",
                -8.156198501586914
            ],
            [
                "\u2581\u0441\u0432\u0456\u0442",
                -8.158615112304688
            ],
            [
                "\u2581\u043b\u044e\u0434\u0438\u043d\u0430",
                -8.173873901367188
            ],
            [
                "\u2581fact",
                -8.207818984985352
            ],
            [
                "\u2581water",
                -8.208828926086426
            ],
            [
                "\u0430\u043c",
                -8.08736801147461
            ],
            [
                "\u2581\u0447\u0430\u0441\u0442\u043e",
                -8.177472114562988
            ],
            [
                "\u2581\u043c\u043d\u0435",
                -8.218425750732422
            ],
            [
                "\u258118",
                -8.821741104125977
            ],
            [
                "\u2581\u0441\u043a\u0430\u0437\u0430\u0442\u0438",
                -8.208073616027832
            ],
            [
                "\u2581father",
                -8.223502159118652
            ],
            [
                "\u2581\u0440\u0430\u0437\u043e\u043c",
                -8.186578750610352
            ],
            [
                "\u043f",
                -8.185699462890625
            ],
            [
                "l",
                -8.730341911315918
            ],
            [
                "\u2581Don",
                -8.247257232666016
            ],
            [
                "\u258112",
                -8.806161880493164
            ],
            [
                "\u2581together",
                -8.245108604431152
            ],
            [
                "\u2581given",
                -8.24325942993164
            ],
            [
                "\u2581Can",
                -8.24538516998291
            ],
            [
                "\u2581went",
                -8.24798583984375
            ],
            [
                "\u2581\u0442\u0430\u043a\u0435",
                -8.231151580810547
            ],
            [
                "\u2581view",
                -8.226067543029785
            ],
            [
                "\u2581next",
                -8.249642372131348
            ],
            [
                "\u2581power",
                -8.23391342163086
            ],
            [
                "\u044f\u0442\u044c",
                -8.197052955627441
            ],
            [
                "\u2581call",
                -8.23449993133545
            ],
            [
                "\u2581\u0406\u043b\u044e\u0441\u0442\u0440\u0430\u0446\u0456\u044f",
                -8.23941421508789
            ],
            [
                "\u2581believe",
                -8.23801040649414
            ],
            [
                "\u2581However",
                -8.257883071899414
            ],
            [
                "\u2581\u0435",
                -8.267132759094238
            ],
            [
                "\u2581\u0442\u0435\u0436",
                -8.22044849395752
            ],
            [
                ",\"",
                -9.099852561950684
            ],
            [
                "\u2581k",
                -9.07544994354248
            ],
            [
                "\u2581\u0440\u043e\u0446\u0456",
                -8.241863250732422
            ],
            [
                "\u2581change",
                -8.245199203491211
            ],
            [
                "\u2581\u0446\u044f",
                -8.22286319732666
            ],
            [
                "\u2581\u043c\u043e\u0436\u043b\u0438\u0432\u043e",
                -8.233227729797363
            ],
            [
                "\u2581Not",
                -8.283784866333008
            ],
            [
                "\u2581later",
                -8.269143104553223
            ],
            [
                "\u2581hand",
                -8.251455307006836
            ],
            [
                "\u2581\u043d\u0435\u043c\u0430\u0454",
                -8.238899230957031
            ],
            [
                "\u2581few",
                -8.274127006530762
            ],
            [
                "es",
                -8.404280662536621
            ],
            [
                "\u2581\u0441\u0432\u043e\u0457\u043c",
                -8.217199325561523
            ],
            [
                "\u2581\u0425\u0440\u0438\u0441\u0442\u0430",
                -8.2349853515625
            ],
            [
                "\u2581\u043e\u043d",
                -8.265892028808594
            ],
            [
                "\u2581wife",
                -8.288617134094238
            ],
            [
                "\u2581\u043f\u0440\u043e\u0442\u0438",
                -8.270894050598145
            ],
            [
                "\u2581Come",
                -8.290329933166504
            ],
            [
                "A",
                -8.625818252563477
            ],
            [
                "\u0447",
                -8.310956954956055
            ],
            [
                "\u2581\u0447\u043e\u043b\u043e\u0432\u0456\u043a",
                -8.221919059753418
            ],
            [
                "\u2581\u043d\u0438\u043c",
                -8.254243850708008
            ],
            [
                "x",
                -8.901922225952148
            ],
            [
                "\u2581mother",
                -8.282230377197266
            ],
            [
                "\u2581anything",
                -8.298979759216309
            ],
            [
                "\u2581\u0404\u0433\u043e\u0432\u0456",
                -8.242894172668457
            ],
            [
                "_",
                -8.85279369354248
            ],
            [
                "\u2581took",
                -8.304097175598145
            ],
            [
                "\u25811:",
                -8.72736644744873
            ],
            [
                "\u2581among",
                -8.303131103515625
            ],
            [
                "\u2581\u0422\u043e\u0436",
                -8.256184577941895
            ],
            [
                "\u2581living",
                -8.30672550201416
            ],
            [
                "\u2581Hey",
                -8.31082820892334
            ],
            [
                "\u2581\u0427\u0442\u043e",
                -8.294100761413574
            ],
            [
                "\u2581during",
                -8.308233261108398
            ],
            [
                "\u2581Okay",
                -8.319611549377441
            ],
            [
                "\u2581learn",
                -8.31147289276123
            ],
            [
                "\u0438\u0432",
                -8.26191520690918
            ],
            [
                "\u2581\u0421\u0432\u0456\u0434\u043a\u0456\u0432",
                -8.258703231811523
            ],
            [
                "\u2581order",
                -8.29793643951416
            ],
            [
                "\u043f\u043e",
                -8.55125904083252
            ],
            [
                "\u2581\u043d\u0456\u0447\u043e\u0433\u043e",
                -8.289346694946289
            ],
            [
                "\u2581\u043f\u043e\u0432",
                -8.318419456481934
            ],
            [
                "\u2581After",
                -8.324044227600098
            ],
            [
                "\u2581having",
                -8.326153755187988
            ],
            [
                "\u2581\u0447\u043e\u0433\u043e",
                -8.283082008361816
            ],
            [
                "\u2581\u25a1",
                -9.008296012878418
            ],
            [
                "\u2581blood",
                -8.335453987121582
            ],
            [
                "\u2581\u041f\u0440\u043e\u0442\u0435",
                -8.281259536743164
            ],
            [
                "\u2581\u0437\u043d\u043e\u0432\u0443",
                -8.286821365356445
            ],
            [
                "\u2581news",
                -8.380816459655762
            ],
            [
                "\u2581\u043f\u0430\u043c",
                -8.29440689086914
            ],
            [
                "\u25814:",
                -8.703821182250977
            ],
            [
                "\u2581Father",
                -8.339523315429688
            ],
            [
                "\u2581\u041c\u0435\u0440\u0456",
                -8.327467918395996
            ],
            [
                "\u2581became",
                -8.343439102172852
            ],
            [
                "\u2581wanted",
                -8.347854614257812
            ],
            [
                "\u2581\u0429\u043e\u0431",
                -8.30007553100586
            ],
            [
                "\u2581making",
                -8.343857765197754
            ],
            [
                "\u2581\u0442\u0435\u0431\u044f",
                -8.332494735717773
            ],
            [
                "\u2581\u043c\u0456\u0433",
                -8.30065631866455
            ],
            [
                "\u2581themselves",
                -8.347549438476562
            ],
            [
                "\u2581\u0437\u0430\u0440\u0430\u0437",
                -8.326618194580078
            ],
            [
                "\u2581Did",
                -8.351888656616211
            ],
            [
                "p",
                -8.877154350280762
            ],
            [
                "\u2581On",
                -8.353219985961914
            ],
            [
                "\u2581kde",
                -8.955811500549316
            ],
            [
                "\u2581By",
                -8.355358123779297
            ],
            [
                "\u2581\u0414\u0435",
                -8.411622047424316
            ],
            [
                "\u2581Where",
                -8.359716415405273
            ],
            [
                "\u2581lot",
                -8.342720985412598
            ],
            [
                "\u2581\u0412\u0456\u0434",
                -8.351338386535645
            ],
            [
                "\u2581point",
                -8.333168029785156
            ],
            [
                "\u2581These",
                -8.36050796508789
            ],
            [
                "\u2581gave",
                -8.362263679504395
            ],
            [
                "\u2581\u041f",
                -8.281156539916992
            ],
            [
                "\u2581understand",
                -8.34396743774414
            ],
            [
                "\u2581son",
                -8.353262901306152
            ],
            [
                "\u2581already",
                -8.363631248474121
            ],
            [
                "\u2581\u0446\u0438\u043c",
                -8.317989349365234
            ],
            [
                "\u2581Word",
                -8.346569061279297
            ],
            [
                "\u2581%1",
                -8.355453491210938
            ],
            [
                "\u2581\u0425\u0442\u043e",
                -8.337483406066895
            ],
            [
                "\u2581\u043c\u043e\u0433\u043b\u0438",
                -8.32079792022705
            ],
            [
                "\u2581century",
                -8.371416091918945
            ],
            [
                "\u258130",
                -8.911259651184082
            ],
            [
                "\u25816",
                -8.942476272583008
            ],
            [
                "\u2581\u0437\u043d\u0430\u0447\u0435\u043d\u043d\u044f",
                -8.341797828674316
            ],
            [
                "\u2581city",
                -8.374151229858398
            ],
            [
                "\u2581someone",
                -8.37661075592041
            ],
            [
                "\u2581David",
                -8.400420188903809
            ],
            [
                "\u2581\u041e\u0441\u044c",
                -8.337259292602539
            ],
            [
                "\u2581apostle",
                -8.360349655151367
            ],
            [
                "\u2581saw",
                -8.3779935836792
            ],
            [
                "\u2581wrote",
                -8.379494667053223
            ],
            [
                "\u2581Israel",
                -8.392452239990234
            ],
            [
                "\u2581\u0411\u043e\u0436\u043e\u0433\u043e",
                -8.324657440185547
            ],
            [
                "\u2581care",
                -8.36294937133789
            ],
            [
                "\u2581night",
                -8.364217758178711
            ],
            [
                "\u2581since",
                -8.382475852966309
            ],
            [
                "\u2581Just",
                -8.385674476623535
            ],
            [
                "The",
                -8.416132926940918
            ],
            [
                "\u2581\u0441\u0432\u0456\u0439",
                -8.332655906677246
            ],
            [
                "\u0432\u0430",
                -8.346664428710938
            ],
            [
                "\u2581nothing",
                -8.389520645141602
            ],
            [
                "\u2581asked",
                -8.394218444824219
            ],
            [
                "\u2581whole",
                -8.392806053161621
            ],
            [
                "\u2581\u0442\u0440\u0438",
                -8.37482738494873
            ],
            [
                "\u2581Because",
                -8.40000057220459
            ],
            [
                "3",
                -8.890570640563965
            ],
            [
                "\u2581F",
                -9.090601921081543
            ],
            [
                "\u2581child",
                -8.4038724899292
            ],
            [
                "\u2581With",
                -8.405716896057129
            ],
            [
                "\u2581\u0414\u043b\u044f",
                -8.36767292022705
            ],
            [
                "\u2581bad",
                -8.411749839782715
            ],
            [
                "2",
                -8.89698600769043
            ],
            [
                "\u0421",
                -8.460206031799316
            ],
            [
                "\u0442\u0456",
                -8.387289047241211
            ],
            [
                "\u2581yet",
                -8.41297435760498
            ],
            [
                "\u2581start",
                -8.412409782409668
            ],
            [
                "\u2581\u043c\u043e\u0436\u0443",
                -8.39006233215332
            ],
            [
                "\u2581\u043c\u0430\u043b\u0438",
                -8.362977981567383
            ],
            [
                "\u043b\u044f",
                -8.46058464050293
            ],
            [
                "\u2581body",
                -8.42059326171875
            ],
            [
                "\u043e\u0432\u0456",
                -8.349739074707031
            ],
            [
                "\u2581reason",
                -8.399378776550293
            ],
            [
                "\u2581\u0434\u0432\u0430",
                -8.383682250976562
            ],
            [
                "\u25815:",
                -8.795900344848633
            ],
            [
                "\u2581woman",
                -8.421830177307129
            ],
            [
                "\u2581\u0412\u0441\u0435",
                -8.401939392089844
            ],
            [
                "\u2581\u0435\u0433\u043e",
                -8.416901588439941
            ],
            [
                "\u2581\u043c\u044b",
                -8.411698341369629
            ],
            [
                "or",
                -8.889655113220215
            ],
            [
                "\u2581wrong",
                -8.42771053314209
            ],
            [
                "\u2581Peter",
                -8.43830680847168
            ],
            [
                "\u2581saying",
                -8.416047096252441
            ],
            [
                "\u2581peace",
                -8.43018627166748
            ],
            [
                "\u2581real",
                -8.425454139709473
            ],
            [
                "\u2581ask",
                -8.412681579589844
            ],
            [
                "\u2581\u043d\u0435\u0457",
                -8.435480117797852
            ],
            [
                "\u2581best",
                -8.435725212097168
            ],
            [
                "\u25817",
                -8.985276222229004
            ],
            [
                "\u2581hard",
                -8.433273315429688
            ],
            [
                "\u0438\u043b\u0438",
                -8.401029586791992
            ],
            [
                "\u2581dead",
                -8.435133934020996
            ],
            [
                "\u2581coming",
                -8.438008308410645
            ],
            [
                "\u2581full",
                -8.436936378479004
            ],
            [
                "\u2581began",
                -8.440573692321777
            ],
            [
                "\u258125",
                -9.044632911682129
            ],
            [
                "\u2581information",
                -8.450028419494629
            ],
            [
                "\u2581His",
                -8.459816932678223
            ],
            [
                "\u2581\u041d\u043e",
                -8.436224937438965
            ],
            [
                "\u2581brothers",
                -8.46993637084961
            ],
            [
                "\u2581\u0421\u0432\u0456\u0434\u043a\u0438",
                -8.399800300598145
            ],
            [
                "\u2581\u043d",
                -8.368099212646484
            ],
            [
                "\u2581bring",
                -8.438372611999512
            ],
            [
                "\u2581\u043d\u043e",
                -8.432525634765625
            ],
            [
                "\u2581problem",
                -8.440498352050781
            ],
            [
                "\u2581\u0431\u0430\u0433\u0430\u0442\u044c\u043e\u0445",
                -8.388016700744629
            ],
            [
                "\u2581high",
                -8.461276054382324
            ],
            [
                "\u2581\u0434\u043d\u044f",
                -8.408186912536621
            ],
            [
                "\u2581\u2022",
                -9.141736030578613
            ],
            [
                "\u2581\u0441\u0430\u043c\u043e",
                -8.472424507141113
            ],
            [
                "\u2581seen",
                -8.46605396270752
            ],
            [
                "\u2581\u041e\u0431",
                -8.496540069580078
            ],
            [
                "\u2581Satan",
                -8.466458320617676
            ],
            [
                "\u2581\u043d\u0438\u043c\u0438",
                -8.421282768249512
            ],
            [
                "\u2581case",
                -8.453631401062012
            ],
            [
                "\u2581\u0442\u0430\u043a\u0438\u0439",
                -8.454626083374023
            ],
            [
                "\u2581school",
                -8.45542049407959
            ],
            [
                "\u2581\u0422\u043e\u0434\u0456",
                -8.42150592803955
            ],
            [
                "@",
                -8.586625099182129
            ],
            [
                "\u2581\u041a\u0440\u0456\u043c",
                -8.422462463378906
            ],
            [
                "\u2581food",
                -8.459708213806152
            ],
            [
                "\u2581war",
                -8.45674991607666
            ],
            [
                "\u2581everything",
                -8.47741985321045
            ],
            [
                "\u2581worship",
                -8.475064277648926
            ],
            [
                "\u2581cannot",
                -8.479232788085938
            ],
            [
                "\u2581until",
                -8.48093032836914
            ],
            [
                "\u043a\u043e",
                -8.49582576751709
            ],
            [
                "\u2581\u0447\u0438\u043d\u043e\u043c",
                -8.4518461227417
            ],
            [
                "\u2581\u0426\u0430\u0440\u0441\u0442\u0432\u0430",
                -8.43124008178711
            ],
            [
                "\u2581try",
                -8.486981391906738
            ],
            [
                "\u2581\u0442\u0430\u043a\u0438\u0445",
                -8.455151557922363
            ],
            [
                "\u2581\u0449\u043e\u0434\u043e",
                -8.44391918182373
            ],
            [
                "\u2581\u043c",
                -8.413818359375
            ],
            [
                "\u2581matter",
                -8.474306106567383
            ],
            [
                "\u2581free",
                -8.515885353088379
            ],
            [
                "\u2581\u041d\u0435\u0442",
                -8.476713180541992
            ],
            [
                "\u2581yourself",
                -8.493424415588379
            ],
            [
                "\u2581fine",
                -8.494650840759277
            ],
            [
                "\u2581D",
                -9.133760452270508
            ],
            [
                "\u2581far",
                -8.494925498962402
            ],
            [
                "\u0443\u0432\u0430\u043d\u043d\u044f",
                -8.554730415344238
            ],
            [
                "\u043a\u043e\u044e",
                -8.501131057739258
            ],
            [
                "\u25819",
                -8.97265338897705
            ],
            [
                "\u2581\u043c\u0456\u0439",
                -8.46729564666748
            ],
            [
                "\u2581\u0434\u0430\u0432",
                -8.477609634399414
            ],
            [
                "\u2581\u041d\u0430\u043f\u0440\u0438\u043a\u043b\u0430\u0434",
                -8.452704429626465
            ],
            [
                "\u2581\u041f\u0456\u0434",
                -8.4691162109375
            ],
            [
                "\u2581\u0426\u0435\u0439",
                -8.465006828308105
            ],
            [
                "\u258111",
                -8.960615158081055
            ],
            [
                "\u2581\u044f\u043a\u043e\u043c\u0443",
                -8.465415000915527
            ],
            [
                "\u0430\u0432",
                -8.428433418273926
            ],
            [
                "\u2581service",
                -8.491726875305176
            ],
            [
                "\u2581\u0431\u044b",
                -8.496485710144043
            ],
            [
                "\u2581\u0434\u0430\u043b\u0456",
                -8.463130950927734
            ],
            [
                "\u2581O",
                -8.951379776000977
            ],
            [
                "\u2581P",
                -9.174784660339355
            ],
            [
                "\u043e\u0441\u0442\u0456",
                -8.475476264953613
            ],
            [
                "\u2581\u043d\u0430\u0448",
                -8.465245246887207
            ],
            [
                "\u2581using",
                -8.52437686920166
            ],
            [
                "\u2581\u0422\u0435\u043f\u0435\u0440",
                -8.478394508361816
            ],
            [
                "\u2581\u041a",
                -8.419392585754395
            ],
            [
                "\u2581\u043e\u0441\u044c",
                -8.491477012634277
            ],
            [
                "\u0447\u0438",
                -8.452908515930176
            ],
            [
                "\u0432\u0438",
                -8.507718086242676
            ],
            [
                "\u2581\u043f\u0440\u0438\u043a\u043b\u0430\u0434",
                -8.455182075500488
            ],
            [
                "\u25816:",
                -8.880248069763184
            ],
            [
                "\u2581\u043e\u0437\u043d\u0430\u0447\u0430\u0454",
                -8.482857704162598
            ],
            [
                "\u0435\u043c",
                -8.475631713867188
            ],
            [
                "\u2581religious",
                -8.522624015808105
            ],
            [
                "\u042f",
                -8.557578086853027
            ],
            [
                "\u2581From",
                -8.535283088684082
            ],
            [
                "\u2581future",
                -8.526444435119629
            ],
            [
                "\u2581open",
                -8.524153709411621
            ],
            [
                "\u2581happy",
                -8.529601097106934
            ],
            [
                "\u2581\u041f\u0456\u0441\u043b\u044f",
                -8.474273681640625
            ],
            [
                "\u2581possible",
                -8.532326698303223
            ],
            [
                "\u2581\u0434\u0435\u044f\u043a\u0456",
                -8.481646537780762
            ],
            [
                "\u2581\u0422\u0430",
                -8.501309394836426
            ],
            [
                "\u2581\u0411\u043e",
                -8.524243354797363
            ],
            [
                "\u2581\u0441\u043e",
                -8.626537322998047
            ],
            [
                "\u2581\u043b\u044e\u0434\u044f\u043c",
                -8.475851058959961
            ],
            [
                "\u2581whom",
                -8.560462951660156
            ],
            [
                "\u2581\u041e\u043d",
                -8.536327362060547
            ],
            [
                "\u2581\u043d\u0430\u0448\u0456",
                -8.503092765808105
            ],
            [
                "\u2581face",
                -8.521291732788086
            ],
            [
                "\u2581\u043a\u0456\u043b\u044c\u043a\u0430",
                -8.478082656860352
            ],
            [
                "\u2581\u0426\u0456",
                -8.488696098327637
            ],
            [
                "ic",
                -9.071825981140137
            ],
            [
                "\u2581Our",
                -8.543513298034668
            ],
            [
                "\u2581\u0434\u043e\u043f\u043e\u043c\u043e\u0433\u0442\u0438",
                -8.500476837158203
            ],
            [
                "\u2581leave",
                -8.530084609985352
            ],
            [
                "\u043c\u0430",
                -8.44272518157959
            ],
            [
                "\u2581World",
                -8.567474365234375
            ],
            [
                "\u2581\u0443\u0436\u0435",
                -8.52331256866455
            ],
            [
                "\u2581four",
                -8.551348686218262
            ],
            [
                "\u2581message",
                -8.584848403930664
            ],
            [
                "\u2581enough",
                -8.553229331970215
            ],
            [
                "\u2581King",
                -8.537444114685059
            ],
            [
                "\u2581\u041f\u0440\u0438",
                -8.556137084960938
            ],
            [
                "\u2581M",
                -9.163728713989258
            ],
            [
                "\u2581article",
                -8.538437843322754
            ],
            [
                "\u2581\u0441\u0442\u0430\u0432",
                -8.500482559204102
            ],
            [
                "\u2581question",
                -8.537455558776855
            ],
            [
                "\u0441\u0442\u0438",
                -8.649515151977539
            ],
            [
                "\u2581\u0437\u0440\u043e\u0431\u0438\u0432",
                -8.531148910522461
            ],
            [
                "\u2581\u0441\u043f\u0440\u0430\u0432\u0434\u0456",
                -8.528414726257324
            ],
            [
                "\u2581\u0434\u0456\u0439\u0441\u043d\u043e",
                -8.533204078674316
            ],
            [
                "\u2581problems",
                -8.585615158081055
            ],
            [
                "\u2581known",
                -8.570157051086426
            ],
            [
                "\u0447\u0435",
                -8.649419784545898
            ],
            [
                "\u2581please",
                -8.56528091430664
            ],
            [
                "\u0414",
                -8.664031028747559
            ],
            [
                "\u2581once",
                -8.566346168518066
            ],
            [
                "\u258116",
                -9.142290115356445
            ],
            [
                "\u2581however",
                -8.569087028503418
            ],
            [
                "\u2581lives",
                -8.599285125732422
            ],
            [
                "\u2581\u0437\u043d\u0430\u0439\u0442\u0438",
                -8.5254545211792
            ],
            [
                "\u2581\u043c\u0430\u0454\u043c\u043e",
                -8.54431438446045
            ],
            [
                "\u2581small",
                -8.576428413391113
            ],
            [
                "\u2581friends",
                -8.59433650970459
            ],
            [
                "\u0430\u043b\u0438",
                -8.512893676757812
            ],
            [
                "\u2581\u043e\u0434\u043d\u0430",
                -8.533008575439453
            ],
            [
                "\u2581knowledge",
                -8.579193115234375
            ],
            [
                "\u2581doesn",
                -8.582802772521973
            ],
            [
                "\u2581\u0411\u043e\u0433\u043e\u043c",
                -8.536290168762207
            ],
            [
                "\u2581\u043c\u0456\u0441\u0446\u0435",
                -8.541707992553711
            ],
            [
                "\u0434\u0430",
                -8.510442733764648
            ],
            [
                "\u2581\u0411\u043e\u0433\u043e\u0432\u0456",
                -8.529142379760742
            ],
            [
                "\u0434\u0438",
                -8.579014778137207
            ],
            [
                "\u0443\u044e\u0442\u044c",
                -8.632329940795898
            ],
            [
                "en",
                -9.199033737182617
            ],
            [
                "\u2581heard",
                -8.587621688842773
            ],
            [
                "D",
                -9.20063591003418
            ],
            [
                "\u0443\u0454",
                -8.636279106140137
            ],
            [
                "\u0442\u0443",
                -8.59233283996582
            ],
            [
                "\u2581Even",
                -8.583333015441895
            ],
            [
                "\u2581mankind",
                -8.588582038879395
            ],
            [
                "\u2581ways",
                -8.68704605102539
            ],
            [
                "\u2581second",
                -8.570643424987793
            ],
            [
                "\u2581light",
                -8.56734848022461
            ],
            [
                "T",
                -9.241522789001465
            ],
            [
                "\u2581women",
                -8.592917442321777
            ],
            [
                "\u2581result",
                -8.573951721191406
            ],
            [
                "\u2581T",
                -9.08028793334961
            ],
            [
                "\u0434\u043e",
                -8.654333114624023
            ],
            [
                "\u2581brother",
                -8.58290958404541
            ],
            [
                "\u2581ago",
                -8.604004859924316
            ],
            [
                "\u2581United",
                -8.606446266174316
            ],
            [
                "\u25812.",
                -9.461478233337402
            ],
            [
                "\u2581hear",
                -8.580456733703613
            ],
            [
                "\u258117",
                -9.110941886901855
            ],
            [
                "\u2581\u0446\u0456\u0439",
                -8.565450668334961
            ],
            [
                "ers",
                -8.713142395019531
            ],
            [
                "\u0443\u0432\u0430\u043b\u0438",
                -8.689162254333496
            ],
            [
                "\u2581\u043f\u043e\u0442\u0456\u043c",
                -8.572430610656738
            ],
            [
                "\u2581\u0432\u043e\u043d\u043e",
                -8.561417579650879
            ],
            [
                "\u2581\u043f\u0438\u0442\u0430\u043d\u043d\u044f",
                -8.561327934265137
            ],
            [
                "\u2581\u0445\u043e\u0442\u0456\u0432",
                -8.5768404006958
            ],
            [
                "\u2581G",
                -9.281229019165039
            ],
            [
                "\u2581nations",
                -8.620912551879883
            ],
            [
                "\u2581won",
                -8.609232902526855
            ],
            [
                "\u2581\u0438\u0437",
                -8.639738082885742
            ],
            [
                "\u0410",
                -8.589426040649414
            ],
            [
                "\u2581\u0443\u0441\u0456\u0445",
                -8.560368537902832
            ],
            [
                "\u2581Lord",
                -8.615535736083984
            ],
            [
                "\u2581\u0441\u043b\u043e\u0432\u043e",
                -8.56736946105957
            ],
            [
                "\u258114",
                -9.150470733642578
            ],
            [
                "\u2581speak",
                -8.598865509033203
            ],
            [
                "\u2581makes",
                -8.706256866455078
            ],
            [
                "\u2581knew",
                -8.619771003723145
            ],
            [
                "\u2581\u044f\u043a\u0438\u043c",
                -8.586984634399414
            ],
            [
                "\u2581close",
                -8.612044334411621
            ],
            [
                "\u2581happened",
                -8.620101928710938
            ],
            [
                "\u2581\u0441\u0430\u043c",
                -8.525693893432617
            ],
            [
                "\u2581\u0436\u0438\u0442\u0438",
                -8.578612327575684
            ],
            [
                "k",
                -9.209816932678223
            ],
            [
                "\u2581\u043b\u0430\u0441\u043a\u0430",
                -8.601256370544434
            ],
            [
                "\u2581eyes",
                -8.62983512878418
            ],
            [
                "\u2581\u0441\u043f\u043e\u0441\u0456\u0431",
                -8.578381538391113
            ],
            [
                "\u2581looking",
                -8.626997947692871
            ],
            [
                "\u2581\u0427\u0435\u0440\u0435\u0437",
                -8.552101135253906
            ],
            [
                "\u2581\u043c\u0430\u0439\u0436\u0435",
                -8.573588371276855
            ],
            [
                "\u2581\u0434",
                -8.58345890045166
            ],
            [
                "\u2581\u043d\u0430\u0448\u043e\u0433\u043e",
                -8.576323509216309
            ],
            [
                "\u2581turn",
                -8.612357139587402
            ],
            [
                "\u2581Please",
                -8.632149696350098
            ],
            [
                "\u2581Jerusalem",
                -8.633334159851074
            ],
            [
                "\u2581else",
                -8.649815559387207
            ],
            [
                "\u2581move",
                -8.612385749816895
            ],
            [
                "\u2581\u0457\u0439",
                -8.58344554901123
            ],
            [
                "\u2581\u0426\u0430\u0440\u0441\u0442\u0432\u043e",
                -8.578536987304688
            ],
            [
                "\u2581\u043a\u0456\u043b\u044c\u043a\u0456\u0441\u0442\u044c",
                -8.58203125
            ],
            [
                "\u2581\u0437\u0432",
                -8.633084297180176
            ],
            [
                "\u2581\u0404\u0433\u043e\u0432\u0443",
                -8.584647178649902
            ],
            [
                "\u2581\u0411\u0456\u0431\u043b\u0456\u044e",
                -8.58554744720459
            ],
            [
                "\u2581line",
                -8.618964195251465
            ],
            [
                "\u2581Many",
                -8.644200325012207
            ],
            [
                "\u2581answer",
                -8.62280559539795
            ],
            [
                "\u2581car",
                -8.642950057983398
            ],
            [
                "\u0448\u0435",
                -8.694405555725098
            ],
            [
                "\u2581getting",
                -8.64487361907959
            ],
            [
                "\u2581\u0445\u0440\u0438\u0441\u0442\u0438\u044f\u043d\u0438",
                -8.592680931091309
            ],
            [
                "\u2581started",
                -8.674248695373535
            ],
            [
                "\u2581Matthew",
                -8.651988983154297
            ],
            [
                "\u2581following",
                -8.648567199707031
            ],
            [
                "\u2581holy",
                -8.652423858642578
            ],
            [
                "\u2581\u0443\u0441\u0456",
                -8.60616683959961
            ],
            [
                "\u2581\u0442\u0440\u043e\u0445\u0438",
                -8.622023582458496
            ],
            [
                "\u2581\u0434\u0443\u043c\u0430\u044e",
                -8.634440422058105
            ],
            [
                "\u043d\u0438\u043c\u0438",
                -8.63406753540039
            ],
            [
                "\u2581\u0445\u0442\u043e\u0441\u044c",
                -8.613324165344238
            ],
            [
                "\u2581text",
                -8.67587947845459
            ],
            [
                "\u2581\u043b\u044e\u0434\u0438\u043d\u0438",
                -8.60771369934082
            ],
            [
                "\u2581\u043f\u043e\u0434",
                -8.661860466003418
            ],
            [
                "\u043d\u044e",
                -8.719581604003906
            ],
            [
                "\u2581sense",
                -8.6464204788208
            ],
            [
                "\u2581\u0441\u0435\u0440\u0435\u0434",
                -8.611430168151855
            ],
            [
                "\u2581faithful",
                -8.667916297912598
            ],
            [
                "\u258113",
                -9.202125549316406
            ],
            [
                "\u0456\u0457",
                -8.726523399353027
            ],
            [
                "\u2581\u0426\u044f",
                -8.620318412780762
            ],
            [
                "\u2581Of",
                -8.672069549560547
            ],
            [
                "\u258140",
                -9.333134651184082
            ],
            [
                "\u2581\u0431\u0456\u043b\u044c\u0448",
                -8.612510681152344
            ],
            [
                "\u2581remember",
                -8.654457092285156
            ],
            [
                "\u043c\u0456",
                -8.587448120117188
            ],
            [
                "\u2581big",
                -8.697610855102539
            ],
            [
                "4",
                -9.223023414611816
            ],
            [
                "\u2581questions",
                -8.699864387512207
            ],
            [
                "\u043b\u044e",
                -8.68867015838623
            ],
            [
                "\u2581husband",
                -8.666315078735352
            ],
            [
                "P",
                -9.385613441467285
            ],
            [
                "\u2581Son",
                -8.691025733947754
            ],
            [
                "\u2581\u0422\u043e",
                -8.65774154663086
            ],
            [
                "\u2581\u043c\u043e\u044f",
                -8.654952049255371
            ],
            [
                "\u2581\u0441\u043b\u0443\u0436\u0456\u043d\u043d\u044f",
                -8.610135078430176
            ],
            [
                "\u2581land",
                -8.6653413772583
            ],
            [
                "\u2581needed",
                -8.693025588989258
            ],
            [
                "\u2581million",
                -8.670272827148438
            ],
            [
                "\u2581side",
                -8.668999671936035
            ],
            [
                "\u2581disciples",
                -8.69347095489502
            ],
            [
                "\u2581kingdom",
                -8.670049667358398
            ],
            [
                "\u2581\u0437\u0434\u043e\u0440\u043e\u0432",
                -8.625090599060059
            ],
            [
                "\u2581Thank",
                -8.675300598144531
            ],
            [
                "\u2581\u043d\u0430\u0440\u043e\u0434",
                -8.684331893920898
            ],
            [
                "\u2581brought",
                -8.694425582885742
            ],
            [
                "\u2581\u0411",
                -8.622444152832031
            ],
            [
                "\u2581\u041c\u044b",
                -8.683192253112793
            ],
            [
                "\u2581soon",
                -8.699250221252441
            ],
            [
                "\u2581\u0414",
                -8.629782676696777
            ],
            [
                "\u2581\u0437\u0430\u043f\u0438\u0442\u0430\u043d\u043d\u044f",
                -8.641923904418945
            ],
            [
                "\u2581Go",
                -8.7620210647583
            ],
            [
                "\u0430\u0442\u0438",
                -8.610179901123047
            ],
            [
                "\u2581\u043a\u043e\u0442\u0440\u0456",
                -8.616289138793945
            ],
            [
                "an",
                -9.270207405090332
            ],
            [
                "\u2581E",
                -9.114324569702148
            ],
            [
                "\u2581stop",
                -8.687054634094238
            ],
            [
                "le",
                -9.39625072479248
            ],
            [
                "\u2581\u0425\u0440\u0438\u0441\u0442\u043e\u0441",
                -8.662750244140625
            ],
            [
                "\u258150",
                -9.334060668945312
            ],
            [
                "\u2581idea",
                -8.69033145904541
            ],
            [
                "\u2581head",
                -8.689338684082031
            ],
            [
                "\u2581along",
                -8.70846939086914
            ],
            [
                "\u2581percent",
                -8.707527160644531
            ],
            [
                "\u2581share",
                -8.74957275390625
            ],
            [
                "\u2581Yet",
                -8.714750289916992
            ],
            [
                "\u2581Look",
                -8.6954984664917
            ],
            [
                "\u2581000",
                -8.666433334350586
            ],
            [
                "\u2581early",
                -8.717164039611816
            ],
            [
                "\u2581\u0436\u0438\u0442\u0442\u0456",
                -8.659866333007812
            ],
            [
                "\u044e\u0442\u044c",
                -8.593316078186035
            ],
            [
                "\u2581sorry",
                -8.719636917114258
            ],
            [
                "\u2581experience",
                -8.702569961547852
            ],
            [
                "\u2581\u0445\u043e\u0447\u0435",
                -8.687416076660156
            ],
            [
                "\u2581okay",
                -8.722209930419922
            ],
            [
                "\u2581trying",
                -8.725024223327637
            ],
            [
                "\u2581serve",
                -8.70616340637207
            ],
            [
                "\u2581five",
                -8.722777366638184
            ],
            [
                "\u2581list",
                -8.735427856445312
            ],
            [
                "\u2581\u0441\u0442\u0430\u0442\u0438",
                -8.674054145812988
            ],
            [
                "\u2581\u0440\u043e\u0431\u043e\u0442\u0443",
                -8.67902660369873
            ],
            [
                "\u2581whether",
                -8.728182792663574
            ],
            [
                "f",
                -9.448857307434082
            ],
            [
                "\u2581toward",
                -8.715590476989746
            ],
            [
                "\u2581preaching",
                -8.731605529785156
            ],
            [
                "\u2581\u0431\u0440\u0430\u0442\u0438",
                -8.680148124694824
            ],
            [
                "\u2581thinking",
                -8.741024017333984
            ],
            [
                "\u2581language",
                -8.72370433807373
            ],
            [
                "\u0443\u0432\u0430\u0432",
                -8.783666610717773
            ],
            [
                "\u0412",
                -8.803305625915527
            ],
            [
                "us",
                -9.335817337036133
            ],
            [
                "\u2581control",
                -8.71679401397705
            ],
            [
                "\u2581religion",
                -8.718807220458984
            ],
            [
                "able",
                -8.911142349243164
            ],
            [
                "\u2581taking",
                -8.734724998474121
            ],
            [
                "\u2581\u043e\u0441\u043a\u0456\u043b\u044c\u043a\u0438",
                -8.671642303466797
            ],
            [
                "\u2581certain",
                -8.735942840576172
            ],
            [
                "\u2581An",
                -8.815191268920898
            ],
            [
                "\u2581purpose",
                -8.72170639038086
            ],
            [
                "\u2581\u0430\u0436",
                -8.684738159179688
            ],
            [
                "\u2581needs",
                -8.834063529968262
            ],
            [
                "\u043d\u043e\u0457",
                -8.667000770568848
            ],
            [
                "\u2581\u043d\u0430\u0441\u043f\u0440\u0430\u0432\u0434\u0456",
                -8.706628799438477
            ],
            [
                "\u2581comes",
                -8.823951721191406
            ],
            [
                "\u2581present",
                -8.72434139251709
            ],
            [
                "g",
                -9.497387886047363
            ],
            [
                "\u2581\u0434\u0430\u0454",
                -8.704446792602539
            ],
            [
                "\u2581personal",
                -8.746515274047852
            ],
            [
                "\u2581Here",
                -8.762718200683594
            ],
            [
                "\u2581\u0441\u043c\u0435\u0440\u0442\u0456",
                -8.685972213745117
            ],
            [
                "\u2581\u043f\u0440\u043e\u0431\u043b\u0435\u043c\u0438",
                -8.694762229919434
            ],
            [
                "\u2581\u0432\u0456\u0440\u0443",
                -8.683171272277832
            ],
            [
                "\u2581\u0457\u0445\u043d\u0456",
                -8.686934471130371
            ],
            [
                "\u2581country",
                -8.749213218688965
            ],
            [
                "\u2581support",
                -8.729718208312988
            ],
            [
                "\u2581friend",
                -8.735326766967773
            ],
            [
                "\u0441\u0442\u044c",
                -8.648306846618652
            ],
            [
                "\u2581\u0422\u0443\u0442",
                -8.719961166381836
            ],
            [
                "\u2581\u0431\u043b\u0438\u0437\u044c\u043a\u043e",
                -8.702046394348145
            ],
            [
                "\u2581\u0440\u0456\u043a",
                -8.708295822143555
            ],
            [
                "\u2581felt",
                -8.759689331054688
            ],
            [
                "\u258119",
                -9.223700523376465
            ],
            [
                "\u2581lost",
                -8.762432098388672
            ],
            [
                "\u0441\u0442\u0456",
                -8.701388359069824
            ],
            [
                "\u0431\u0430",
                -8.798514366149902
            ],
            [
                "u",
                -9.41043758392334
            ],
            [
                "\u2581\u043e\u0431\u043e\u0432",
                -8.699721336364746
            ],
            [
                "\u2581group",
                -8.789558410644531
            ],
            [
                "\u2581\u0441\u043f\u0440\u0430\u0432\u0438",
                -8.74655818939209
            ],
            [
                "\u2581\u0442\u0430\u043a\u0438\u043c",
                -8.729803085327148
            ],
            [
                "\u2581law",
                -8.751031875610352
            ],
            [
                "\u2581\u0434\u0456\u0442\u0438",
                -8.717141151428223
            ],
            [
                "to",
                -8.934830665588379
            ],
            [
                "\u2581U",
                -8.949755668640137
            ],
            [
                "\u2581\u0445",
                -8.776987075805664
            ],
            [
                "\u2581\u043f\u0440\u043e\u0442\u044f\u0433\u043e\u043c",
                -8.702662467956543
            ],
            [
                "\u2581\u043c\u0430\u043b\u043e",
                -8.72317886352539
            ],
            [
                "\u2581\u043e\u0442\u0440\u0438\u043c\u0430\u0442\u0438",
                -8.73100471496582
            ],
            [
                "\u2581\u0443\u0432\u0430\u0433\u0443",
                -8.725695610046387
            ],
            [
                "\u2581un",
                -9.17688274383545
            ],
            [
                "\u0456\u044f",
                -8.874666213989258
            ],
            [
                "\u2581humans",
                -8.823166847229004
            ],
            [
                "M",
                -9.526939392089844
            ],
            [
                "it",
                -9.41274642944336
            ],
            [
                "\u2581Psalm",
                -8.766488075256348
            ],
            [
                "\u2581consider",
                -8.77762508392334
            ],
            [
                "\u2581age",
                -8.770429611206055
            ],
            [
                "\u2581\u0456\u0441\u043d\u0443\u0454",
                -8.743929862976074
            ],
            [
                "\u2581fear",
                -8.7655668258667
            ],
            [
                "\u2581x",
                -9.228156089782715
            ],
            [
                "\u25811,",
                -8.997278213500977
            ],
            [
                "\u2581taken",
                -8.78958511352539
            ],
            [
                "\u2581\u043c\u0438\u0440",
                -8.776371955871582
            ],
            [
                "\u2581\u0432\u0430\u043c\u0438",
                -8.836669921875
            ],
            [
                "\u2581die",
                -8.768701553344727
            ],
            [
                "\u2581\u0443\u0441\u0435",
                -8.750173568725586
            ],
            [
                "\u2581died",
                -8.79449462890625
            ],
            [
                "\u0422",
                -8.935038566589355
            ],
            [
                "\u2581\u0411\u043e\u0436\u0438\u0439",
                -8.740323066711426
            ],
            [
                "\u2581heaven",
                -8.77601146697998
            ],
            [
                "\u2581talking",
                -8.798029899597168
            ],
            [
                "\u2581\u0441\u0442\u0430\u0442\u0442\u0456",
                -8.731624603271484
            ],
            [
                "\u0435\u0442",
                -8.78376293182373
            ],
            [
                "\u2581ministry",
                -8.800393104553223
            ],
            [
                "\u2581L",
                -9.290606498718262
            ],
            [
                "\u2581\u043f\u043e\u0447\u0443\u0442\u0442\u044f",
                -8.733959197998047
            ],
            [
                "\u2581\u0422\u043e\u043c\u0430",
                -8.806933403015137
            ],
            [
                "\u2581value",
                -8.79529094696045
            ],
            [
                "B",
                -9.413514137268066
            ],
            [
                "\u2581\u0422\u0435",
                -8.805017471313477
            ],
            [
                "\u2581alone",
                -8.80362606048584
            ],
            [
                "\u25814.",
                -9.295487403869629
            ],
            [
                "\u0432\u0456\u0434",
                -8.871646881103516
            ],
            [
                "\u2581\u042f\u043a\u0456",
                -8.808135032653809
            ],
            [
                "\u0430\u044e\u0442\u044c",
                -8.777523040771484
            ],
            [
                "\u2581Good",
                -8.806863784790039
            ],
            [
                "\u2581cause",
                -8.788167953491211
            ],
            [
                "\u2581\u0413",
                -8.694324493408203
            ],
            [
                "\u2581re",
                -9.166748046875
            ],
            [
                "\u2581working",
                -8.817529678344727
            ],
            [
                "\u2581job",
                -8.784668922424316
            ],
            [
                "\u2581\u043d\u0430\u043f\u0438\u0441\u0430\u0432",
                -8.757216453552246
            ],
            [
                "\u2581\u0432\u0438\u0432\u0447\u0435\u043d\u043d\u044f",
                -8.73204231262207
            ],
            [
                "\u2581shall",
                -8.813576698303223
            ],
            [
                "\u2581\u043d\u0430\u0448\u0438\u0445",
                -8.773218154907227
            ],
            [
                "on",
                -9.220711708068848
            ],
            [
                "\u2581\u0434\u043d\u0456\u0432",
                -8.763161659240723
            ],
            [
                "\u2581learned",
                -8.819811820983887
            ],
            [
                "\u2581\u043a\u043e\u0436\u043d\u043e\u0433\u043e",
                -8.769704818725586
            ],
            [
                "\u2581\u0447\u0442\u043e\u0431\u044b",
                -8.805400848388672
            ],
            [
                "5",
                -9.230360984802246
            ],
            [
                "\u2581\u043a\u0440\u0430\u0449\u0435",
                -8.788055419921875
            ],
            [
                "\u0440\u043e",
                -8.663969993591309
            ],
            [
                "\u2581self",
                -8.827030181884766
            ],
            [
                "\u0446",
                -8.890068054199219
            ],
            [
                "1",
                -9.25517749786377
            ],
            [
                "\u2581\u041c",
                -8.718710899353027
            ],
            [
                "\u2581marriage",
                -8.810583114624023
            ],
            [
                "\u2581\u0434\u0443\u0445",
                -8.766290664672852
            ],
            [
                "\u2581Get",
                -8.830140113830566
            ],
            [
                "\u2581anyone",
                -8.830284118652344
            ],
            [
                "\u0430\u043b\u0430",
                -8.741111755371094
            ],
            [
                "\u2581Scriptures",
                -8.835494041442871
            ],
            [
                "\u2581form",
                -8.893473625183105
            ],
            [
                "\u2581history",
                -8.829848289489746
            ],
            [
                "\u2581\u0412\u044b",
                -8.824811935424805
            ],
            [
                "\u2581situation",
                -8.81767463684082
            ],
            [
                "\u2581\u0441\u0442\u0430\u043b\u0438",
                -8.779851913452148
            ],
            [
                "\u2581\u043e\u043d\u0430",
                -8.848150253295898
            ],
            [
                "\u2581Or",
                -8.84676456451416
            ],
            [
                "\u2581\u0434\u043e\u043c\u0443",
                -8.799688339233398
            ],
            [
                "\u2581de",
                -9.281015396118164
            ],
            [
                "\u2581sent",
                -8.840924263000488
            ],
            [
                "\u2581large",
                -8.83957576751709
            ],
            [
                "\u2581States",
                -8.841493606567383
            ],
            [
                "\u2581\u0431\u0430\u0442\u044c\u043a\u0438",
                -8.780171394348145
            ],
            [
                "\u0430\u0454",
                -8.805508613586426
            ],
            [
                "\u2581\u0434\u0430\u043d\u0438\u0445",
                -8.824003219604492
            ],
            [
                "\u2581Be",
                -8.899797439575195
            ],
            [
                "\u2581\u043e\u0441\u043e\u0431\u043b\u0438\u0432\u043e",
                -8.782262802124023
            ],
            [
                "\u0434\u0456",
                -8.748697280883789
            ],
            [
                "\u2581account",
                -8.8236722946167
            ],
            [
                "\u2581\u0411\u0430\u0433\u0430\u0442\u043e",
                -8.79865837097168
            ],
            [
                "\u2581past",
                -8.849063873291016
            ],
            [
                "Name",
                -8.857999801635742
            ],
            [
                "\u2581play",
                -8.855414390563965
            ],
            [
                "\u043b\u0443",
                -8.77778434753418
            ],
            [
                "\u2581\u0441\u0435\u0440\u0446\u0435",
                -8.793339729309082
            ],
            [
                "\u2581\u043f\u043e\u043a\u0430\u0437\u0443\u0454",
                -8.815653800964355
            ],
            [
                "\u2581works",
                -8.958881378173828
            ],
            [
                "\u2581\u041d\u0430\u043c",
                -8.849376678466797
            ],
            [
                "\u2581\u0431\u0443\u0434\u0443",
                -8.846211433410645
            ],
            [
                "\u2581\u0433\u0440\u043e\u0448\u0456",
                -8.815085411071777
            ],
            [
                "\u2581Does",
                -8.860369682312012
            ],
            [
                "\u2581\u0441\u0432\u043e\u0454\u0457",
                -8.793657302856445
            ],
            [
                "\u2581ancient",
                -8.860013961791992
            ],
            [
                "\u2581isn",
                -8.89535140991211
            ],
            [
                "\u2581\u0437\u043e\u0432\u0441\u0456\u043c",
                -8.813343048095703
            ],
            [
                "\u2581\u0433\u043e\u0432\u043e\u0440\u0438\u0442\u044c\u0441\u044f",
                -8.800180435180664
            ],
            [
                "\u2581\u0440\u0435\u0447\u0456",
                -8.823779106140137
            ],
            [
                "\u2581king",
                -8.847859382629395
            ],
            [
                "\u2581\u043c\u043d\u043e\u044e",
                -8.823756217956543
            ],
            [
                "\u2581continue",
                -8.845595359802246
            ],
            [
                "\u2581write",
                -8.846980094909668
            ],
            [
                "\u2581less",
                -8.863870620727539
            ],
            [
                "\u2581Isaiah",
                -8.865735054016113
            ],
            [
                "\u2581\u043b\u044e\u0434\u044c\u043c\u0438",
                -8.811685562133789
            ],
            [
                "\u2581especially",
                -8.868619918823242
            ],
            [
                "\u2581\u0456\u043d\u0448\u0438\u043c",
                -8.807822227478027
            ],
            [
                "\u2581\u0437\u0435\u043c\u043b\u044e",
                -8.817778587341309
            ],
            [
                "\u2581\u042f\u043a\u0438\u0439",
                -8.852349281311035
            ],
            [
                "\u2581bit",
                -8.84735107421875
            ],
            [
                "\u0449",
                -8.95698070526123
            ],
            [
                "\u2581\u0441\u043b\u0443\u0436\u0438\u0442\u0438",
                -8.811535835266113
            ],
            [
                "\u0441\u0443",
                -8.97815227508545
            ],
            [
                "\u2581least",
                -8.871097564697266
            ],
            [
                "\u0406",
                -8.881953239440918
            ],
            [
                "\u043c\u0443\u0442\u044c",
                -8.823720932006836
            ],
            [
                "\u2581\u043e\u0434\u043d\u0443",
                -8.833763122558594
            ],
            [
                "\u2581room",
                -8.859898567199707
            ],
            [
                "\u2581\u043c\u0430\u044e",
                -8.855921745300293
            ],
            [
                "\u2581\u0440\u0456\u0448\u0435\u043d\u043d\u044f",
                -8.821672439575195
            ],
            [
                "\u2581100",
                -9.476780891418457
            ],
            [
                "\u2581\u043f\u043e\u043d\u0430\u0434",
                -8.834149360656738
            ],
            [
                "\u2581stay",
                -8.860739707946777
            ],
            [
                "R",
                -9.428857803344727
            ],
            [
                "\u2581eat",
                -8.862883567810059
            ],
            [
                "\u2581Have",
                -8.87973403930664
            ],
            [
                "\u2581\u043f\u043e\u0447\u0430\u0442\u043a\u0443",
                -8.833827018737793
            ],
            [
                "\u2581\u043f\u043e\u043a\u0438",
                -8.823369026184082
            ],
            [
                "\u2581\u0440\u043e\u043a\u0438",
                -8.827564239501953
            ],
            [
                "\u2581\u0437\u043d\u0430\u0454",
                -8.851007461547852
            ],
            [
                "\u25813.",
                -9.518014907836914
            ],
            [
                "\u2581\u0431\u0430\u0447\u0438\u0432",
                -8.855210304260254
            ],
            [
                "\u2581\u043a\u043e\u0433\u043e",
                -8.853246688842773
            ],
            [
                "\u2581kgm",
                -8.859166145324707
            ],
            [
                "\u2581\u0440\u043e\u0431\u043e\u0442\u0438",
                -8.844078063964844
            ],
            [
                "\u2581\u0441\u043a\u0430\u0437\u0430\u043b\u0430",
                -8.858845710754395
            ],
            [
                "\u2581loving",
                -8.890336036682129
            ],
            [
                "\u2581sin",
                -8.872130393981934
            ],
            [
                "\u2581government",
                -8.874159812927246
            ],
            [
                "\u2581\u043f\u043e\u0432\u0438\u043d\u0435\u043d",
                -8.857120513916016
            ],
            [
                "\u2581giving",
                -8.892910957336426
            ],
            [
                "\u2581servants",
                -8.901859283447266
            ],
            [
                "\u2581\u043d\u0435\u0442",
                -8.943718910217285
            ],
            [
                "\u2581\u043f\u0440\u0430\u0432\u0434\u0430",
                -8.869065284729004
            ],
            [
                "z",
                -9.693431854248047
            ],
            [
                "\u2581\u0432\u0430\u0436\u043a\u043e",
                -8.837800979614258
            ],
            [
                "h",
                -9.41212272644043
            ],
            [
                "\u2581*.",
                -8.839184761047363
            ],
            [
                "\u2581helped",
                -8.906149864196777
            ],
            [
                "\u2581Since",
                -8.900617599487305
            ],
            [
                "\u2581\u043a\u043e\u0436\u0435\u043d",
                -8.848069190979004
            ],
            [
                "\u2581\u043f\u043e\u0431\u0430\u0447\u0438\u0442\u0438",
                -8.846315383911133
            ],
            [
                "?\"",
                -9.600143432617188
            ],
            [
                "\u2581\u0425\u043e\u0447\u0430",
                -8.829431533813477
            ],
            [
                "\u2581girl",
                -8.887618064880371
            ],
            [
                "\u2581'.",
                -8.953582763671875
            ],
            [
                "\u2581\u0445\u0440\u0438\u0441\u0442\u0438\u044f\u043d",
                -8.846160888671875
            ],
            [
                "\u043d\u043e\u044e",
                -8.84410285949707
            ],
            [
                "\u2581almost",
                -8.905943870544434
            ],
            [
                "\u2581m",
                -9.213031768798828
            ],
            [
                "\u2581\u043e\u0441\u0456\u0431",
                -8.85576343536377
            ],
            [
                "\u0434\u0443",
                -8.843493461608887
            ],
            [
                "\u2581special",
                -8.902578353881836
            ],
            [
                "\u2581\u0447\u043e\u043b\u043e\u0432\u0456\u043a\u0430",
                -8.847187042236328
            ],
            [
                "\u2581type",
                -8.960583686828613
            ],
            [
                "\u25818.",
                -9.567709922790527
            ],
            [
                "\u2581myself",
                -8.911008834838867
            ],
            [
                "\u2581\u0434\u0432\u043e\u0445",
                -8.852489471435547
            ],
            [
                "\u2581\u0441\u043b\u043e\u0432\u0430\u043c\u0438",
                -8.848462104797363
            ],
            [
                "\u2581clear",
                -8.90807056427002
            ],
            [
                "\u2581\u0441\u043c\u0435\u0440\u0442\u044c",
                -8.87315559387207
            ],
            [
                "\u2581area",
                -8.918745994567871
            ],
            [
                "\u2581nor",
                -8.920754432678223
            ],
            [
                "\u25813,",
                -9.583686828613281
            ],
            [
                "ar",
                -9.705434799194336
            ],
            [
                "\u2581health",
                -8.92033863067627
            ],
            [
                "\u041f",
                -8.95873737335205
            ],
            [
                "\u258122",
                -9.448760032653809
            ],
            [
                "\u2581\u0414\u043e\u0431\u0440\u0435",
                -8.908326148986816
            ],
            [
                "\u2581\u0421\u043b\u043e\u0432\u043e",
                -8.874229431152344
            ],
            [
                "\u2581\u0434\u043d\u0456",
                -8.876866340637207
            ],
            [
                "\u2581\u0433\u043e\u0432\u043e\u0440\u0438\u0442\u0438",
                -8.890091896057129
            ],
            [
                "\u2581\u0411\u0443\u0434\u044c",
                -8.907883644104004
            ],
            [
                "\u2581Thus",
                -8.930259704589844
            ],
            [
                "\u2581\u0437\u043d\u0430\u0442\u0438",
                -8.893338203430176
            ],
            [
                "\u2581action",
                -9.178361892700195
            ],
            [
                "\u2581itself",
                -8.929567337036133
            ],
            [
                "\u2581\u0413\u043e\u0441\u043f\u043e\u0434\u044c",
                -8.886818885803223
            ],
            [
                "\u2581\u041e\u0434\u0438\u043d",
                -8.881952285766602
            ],
            [
                "\u2581\u0441\u0432\u043e\u0454\u043c\u0443",
                -8.869170188903809
            ],
            [
                "\u2581\u043a\u0440\u043e\u0432",
                -8.916736602783203
            ],
            [
                "\u2581relationship",
                -8.916069030761719
            ],
            [
                "ness",
                -8.938199043273926
            ],
            [
                "\u2581difficult",
                -8.933162689208984
            ],
            [
                "\u2581kill",
                -8.914838790893555
            ],
            [
                "\u2581\u043a\u043e\u043b\u0438\u0441\u044c",
                -8.902360916137695
            ],
            [
                "\u2581R",
                -9.447208404541016
            ],
            [
                "\u2581hands",
                -8.974350929260254
            ],
            [
                "\u2581\u043d\u0430\u043f\u0440\u0438\u043a\u043b\u0430\u0434",
                -8.893871307373047
            ],
            [
                "w",
                -9.618978500366211
            ],
            [
                "man",
                -9.173636436462402
            ],
            [
                "\u2581\u0437\u043d\u0430\u0432",
                -8.908576011657715
            ],
            [
                "\u2581\u0437\u0430\u0432\u0434\u044f\u043a\u0438",
                -8.84460735321045
            ],
            [
                "\u2581\u0441\u0435\u0440\u0446\u044f",
                -8.886567115783691
            ],
            [
                "\u2581within",
                -8.9489107131958
            ],
            [
                "\u2581\u041d\u0430\u0432\u0456\u0442\u044c",
                -8.888545036315918
            ],
            [
                "\u2581\u0441\u043e\u0431\u043e\u044e",
                -8.891352653503418
            ],
            [
                "\u2581fellow",
                -8.942503929138184
            ],
            [
                "\u2581joy",
                -8.925145149230957
            ],
            [
                "\u2581\u0437\u043c\u0456\u043d\u0438",
                -8.918251037597656
            ],
            [
                "\u2581key",
                -8.964677810668945
            ],
            [
                "\u2581run",
                -8.923290252685547
            ],
            [
                "\u2581\u044f\u043a\u043e\u0457",
                -8.909969329833984
            ],
            [
                "\u2581\u0431\u0430\u0447\u0438\u0442\u0438",
                -8.905807495117188
            ],
            [
                "\u2581\u043f\u0440\u043e\u0433\u0440\u0430\u043c\u0438",
                -8.9183988571167
            ],
            [
                "\u2581longer",
                -8.945808410644531
            ],
            [
                "\u2581half",
                -8.942849159240723
            ],
            [
                "\u0301",
                -8.889729499816895
            ],
            [
                "\u2581shows",
                -8.992403984069824
            ],
            [
                "\u2581\u0442\u043e\u0431\u0442\u043e",
                -8.903402328491211
            ],
            [
                "\u2581local",
                -8.983255386352539
            ],
            [
                "\u0432\u0435\u0440",
                -8.958455085754395
            ],
            [
                "\u2581\u0422\u0430\u043a\u043e\u0436",
                -8.884303092956543
            ],
            [
                "\u2581attention",
                -8.951591491699219
            ],
            [
                "\u258112:",
                -9.334050178527832
            ],
            [
                "\u2581\u0434\u0443\u043c\u043a\u0443",
                -8.899727821350098
            ],
            [
                "\u2581W",
                -9.674616813659668
            ],
            [
                "\u2581heavenly",
                -8.95435619354248
            ],
            [
                "\u043d\u0456\u0441\u0442\u044c",
                -9.094454765319824
            ],
            [
                "\u2581\u0431\u0443\u0434\u0435\u043c\u043e",
                -8.917695045471191
            ],
            [
                "\u2581\u0437\u043d\u0430\u043d\u043d\u044f",
                -8.912867546081543
            ],
            [
                "\u0441\u0438",
                -8.910038948059082
            ],
            [
                "\u2581\u043c\u0435\u043d\u044e",
                -8.946781158447266
            ],
            [
                "\u2581members",
                -8.969468116760254
            ],
            [
                "\u0435\u0446\u044c",
                -8.960018157958984
            ],
            [
                "\u2581H",
                -9.51155948638916
            ],
            [
                "\u2581\u0432\u0456\u043a\u043d\u043e",
                -8.946846008300781
            ],
            [
                "\u2581trust",
                -8.957321166992188
            ],
            [
                "\u2581teaching",
                -8.948156356811523
            ],
            [
                "\u2581\u043f\u043e\u0447\u0430\u0432",
                -8.914361953735352
            ],
            [
                "\u2581window",
                -9.032063484191895
            ],
            [
                "\u0447\u0438\u043d",
                -9.19704532623291
            ],
            [
                "\u2581\u0432\u0456\u0439\u043d\u0438",
                -8.908066749572754
            ],
            [
                "\u2581\u0440\u0456\u0437\u043d\u0438\u0445",
                -8.907089233398438
            ],
            [
                "\u2581near",
                -8.963953971862793
            ],
            [
                "\u2581\u0437\u0431\u043e\u0440\u0443",
                -8.908625602722168
            ],
            [
                "\u2581available",
                -8.963095664978027
            ],
            [
                "\u0441\u0430",
                -8.921619415283203
            ],
            [
                "\u2581\u043c\u0430\u0431\u0443\u0442\u044c",
                -8.935108184814453
            ],
            [
                "\u2581\u0431\u0456\u0431\u043b\u0456\u0439\u043d\u0456",
                -8.897719383239746
            ],
            [
                "\u2581door",
                -8.959978103637695
            ],
            [
                "\u2581\u0437\u0440\u043e\u0437\u0443\u043c\u0456\u0442\u0438",
                -8.911246299743652
            ],
            [
                "\u258121",
                -9.429068565368652
            ],
            [
                "\u0433\u0430",
                -8.869800567626953
            ],
            [
                "\u2581married",
                -8.976032257080078
            ],
            [
                "\u2581\u0442\u0430\u043a\u043e\u0433\u043e",
                -8.954623222351074
            ],
            [
                "\u2581\u043c\u0456\u0441\u0442\u0430",
                -8.912702560424805
            ],
            [
                "ation",
                -9.512454986572266
            ],
            [
                "\u2581\u0431\u044b\u043b",
                -8.951732635498047
            ],
            [
                "\u2581\u0432\u0438\u043a\u043e\u0440\u0438\u0441\u0442\u043e\u0432\u0443\u0432\u0430\u0442\u0438",
                -8.932143211364746
            ],
            [
                "\u2581\u0433\u043e",
                -8.99224853515625
            ],
            [
                "\u0432\u0430\u043b\u0438",
                -8.94451904296875
            ],
            [
                "\u2581rather",
                -8.979443550109863
            ],
            [
                "\u2581\u043e\u0434\u043d\u0435",
                -8.918381690979004
            ],
            [
                "\u2581Will",
                -8.983641624450684
            ],
            [
                "\u2581reading",
                -8.987631797790527
            ],
            [
                "\u2581\u043d\u0430\u043c\u0438",
                -9.040607452392578
            ],
            [
                "\u2581hold",
                -8.96487045288086
            ],
            [
                "U",
                -9.558637619018555
            ],
            [
                "\u2581six",
                -8.984587669372559
            ],
            [
                "\u2581including",
                -8.98681354522705
            ],
            [
                "\u2581according",
                -8.986666679382324
            ],
            [
                "\u2581\u043a\u043e\u043c\u043f",
                -8.962212562561035
            ],
            [
                "\u2581\u0440\u043e\u0431\u0438\u0442\u044c",
                -8.951619148254395
            ],
            [
                "\u2581wants",
                -9.139699935913086
            ],
            [
                "\u2581\u0442\u0430\u043a\u0430",
                -9.057632446289062
            ],
            [
                "\u2581\u0404",
                -9.041994094848633
            ],
            [
                "\u2581c",
                -9.349541664123535
            ],
            [
                "\u2581countries",
                -8.990663528442383
            ],
            [
                "\u2581\u043f\u043e\u0447\u0430\u043b\u0438",
                -8.928027153015137
            ],
            [
                "\u2581\u0422\u0430\u043c",
                -8.947036743164062
            ],
            [
                "\u25815.",
                -9.50285816192627
            ],
            [
                "\u2581Moses",
                -8.99415111541748
            ],
            [
                "\u2581Dr",
                -9.049480438232422
            ],
            [
                "\u2581\u0421\u0428\u0410",
                -8.944971084594727
            ],
            [
                "\u2581church",
                -8.992830276489258
            ],
            [
                "\u2581Jews",
                -8.99921703338623
            ],
            [
                "\u2581happen",
                -8.976094245910645
            ],
            [
                "\u2581months",
                -9.010676383972168
            ],
            [
                "\u0441\u0442\u043e",
                -9.185027122497559
            ],
            [
                "\u2581prayer",
                -8.981619834899902
            ],
            [
                "\u2581wisdom",
                -8.998071670532227
            ],
            [
                "\u0432\u0456",
                -8.927647590637207
            ],
            [
                "\u2581states",
                -9.016460418701172
            ],
            [
                "\u2581\u0441\u0438\u0441\u0442\u0435\u043c\u0438",
                -8.962459564208984
            ],
            [
                "\u2581Greek",
                -8.984368324279785
            ],
            [
                "\u2581\u0434\u043e\u0441\u0438\u0442\u044c",
                -8.962556838989258
            ],
            [
                "\u2581elders",
                -9.013726234436035
            ],
            [
                "\u2581\u0444\u0430\u0439\u043b",
                -8.929096221923828
            ],
            [
                "\u2581easy",
                -9.004185676574707
            ],
            [
                "v",
                -9.80805778503418
            ],
            [
                "\u2581stand",
                -8.985625267028809
            ],
            [
                "\u2581wait",
                -8.999748229980469
            ],
            [
                "\u0411",
                -9.078938484191895
            ],
            [
                "\u2581\u0417\u0432\u0438\u0447\u0430\u0439\u043d\u043e",
                -8.976667404174805
            ],
            [
                "\u2581enjoy",
                -8.986793518066406
            ],
            [
                "\u2581state",
                -9.099197387695312
            ],
            [
                "\u2581\u043d\u0430\u0439",
                -9.330236434936523
            ],
            [
                "\u2581ready",
                -9.011743545532227
            ],
            [
                "\u2581strong",
                -9.009093284606934
            ],
            [
                "\u2581Mr",
                -8.995368003845215
            ],
            [
                "\u0442\u0435\u0440",
                -9.12564754486084
            ],
            [
                "\u2581guy",
                -8.995027542114258
            ],
            [
                "\u2581meet",
                -8.993419647216797
            ],
            [
                "\u258110:",
                -9.404958724975586
            ],
            [
                "\u2581\u0435\u0441\u0442\u044c",
                -8.999757766723633
            ],
            [
                "\u2581simply",
                -9.012335777282715
            ],
            [
                "\u2581See",
                -9.006732940673828
            ],
            [
                "\u2581either",
                -9.00728988647461
            ],
            [
                "\u2581ourselves",
                -9.0143404006958
            ],
            [
                "\u2581follow",
                -8.993391990661621
            ],
            [
                "\u2581hours",
                -9.02914047241211
            ],
            [
                "\u2581\u041d\u0421",
                -8.982823371887207
            ],
            [
                "\u2581Would",
                -9.016151428222656
            ],
            [
                "\u2581\u0434\u0432\u0456",
                -8.982608795166016
            ],
            [
                "\u2581everyone",
                -9.017855644226074
            ],
            [
                "\u2581\u0421\u044c\u043e\u0433\u043e\u0434\u043d\u0456",
                -8.955587387084961
            ],
            [
                "\u2581morning",
                -9.018111228942871
            ],
            [
                "\u2581\u0440\u0430\u043d\u0456\u0448\u0435",
                -8.972097396850586
            ],
            [
                "\u2581\u0456\u043d\u0448\u0438\u043c\u0438",
                -8.959574699401855
            ],
            [
                "\u2581\u0415",
                -9.028326988220215
            ],
            [
                "\u0444",
                -8.942292213439941
            ],
            [
                "\u2581perfect",
                -9.02103328704834
            ],
            [
                "\u2581\u043d\u0430\u0448\u0435",
                -8.997477531433105
            ],
            [
                "\u0446\u044f",
                -9.183032035827637
            ],
            [
                "\u25817:",
                -9.434442520141602
            ],
            [
                "\u25812,",
                -9.874971389770508
            ],
            [
                "\u2581\u0448\u0432\u0438\u0434\u043a\u043e",
                -8.964303016662598
            ],
            [
                "\u2581wicked",
                -9.027200698852539
            ],
            [
                "F",
                -9.587574005126953
            ],
            [
                "\u2581Those",
                -9.02826976776123
            ],
            [
                "\u2581\u043f\u0440\u0430\u0432\u0434\u0443",
                -8.981586456298828
            ],
            [
                "O",
                -9.77048397064209
            ],
            [
                "\u2581thus",
                -9.028676986694336
            ],
            [
                "\u043a\u043e\u043c",
                -9.12472915649414
            ],
            [
                "\u2581\u0441\u0430\u043c\u0456",
                -8.989487648010254
            ],
            [
                "\u0438\u043b\u0430",
                -8.88518238067627
            ],
            [
                "\u2581\u043f\u043e\u0432\u0456\u0434\u043e\u043c\u043b\u0435\u043d\u043d\u044f",
                -8.99799919128418
            ],
            [
                "\u2581public",
                -9.030596733093262
            ],
            [
                "\u2581rest",
                -9.011252403259277
            ],
            [
                "\u0440\u0430",
                -8.724281311035156
            ],
            [
                "\u2581feet",
                -9.033292770385742
            ],
            [
                "\u2581probably",
                -9.032037734985352
            ],
            [
                "\u2581\u0431\u0430\u0442\u044c\u043a\u0456\u0432",
                -8.939191818237305
            ],
            [
                "\u2581Revelation",
                -9.034729957580566
            ],
            [
                "\u2581\u041c\u043e\u0436\u043b\u0438\u0432\u043e",
                -9.001851081848145
            ],
            [
                "\u2581X",
                -9.685123443603516
            ],
            [
                "\u2581Right",
                -9.015791893005371
            ],
            [
                "\u0441\u0442\u0432\u043e",
                -9.097976684570312
            ],
            [
                "\u2581\u0441\u0432\u043e\u0457\u043c\u0438",
                -8.97301197052002
            ],
            [
                "\u258128",
                -9.619499206542969
            ],
            [
                "\u2581\u0444\u0430\u0439\u043b\u0430",
                -9.023808479309082
            ],
            [
                "\u258111:",
                -9.405634880065918
            ],
            [
                "\u2581lead",
                -9.01834774017334
            ],
            [
                "\u2581\u0431\u0440\u0430\u0442",
                -8.977411270141602
            ],
            [
                "\u2581\u0441\u043a\u0430\u0437\u0430\u043d\u043e",
                -8.976452827453613
            ],
            [
                "\u258110.",
                -9.533148765563965
            ],
            [
                "\u2581\u0434\u043e\u043f\u043e\u043c\u043e\u0436\u0435",
                -8.9850492477417
            ],
            [
                "\u2581\u0441\u043f\u0438\u0441\u043a\u0443",
                -9.021472930908203
            ],
            [
                "\u2581maybe",
                -9.036497116088867
            ],
            [
                "is",
                -9.386890411376953
            ],
            [
                "\u0430\u0439\u0442\u0435",
                -9.011293411254883
            ],
            [
                "\u2581\u0437\u043d\u0430\u0454\u0442\u0435",
                -9.0211181640625
            ],
            [
                "\u041a",
                -9.07260799407959
            ],
            [
                "\u2581\u043d\u0435\u044e",
                -9.130990982055664
            ],
            [
                "\u2581\u0442\u0430\u043a\u0443",
                -9.061664581298828
            ],
            [
                "\u0447\u0430",
                -9.030735969543457
            ],
            [
                "\u2581received",
                -9.048927307128906
            ],
            [
                "\u2581\u0442\u0443",
                -9.000568389892578
            ],
            [
                "\u2581files",
                -9.080706596374512
            ],
            [
                "G",
                -9.701671600341797
            ],
            [
                "\u0440\u0435",
                -8.985771179199219
            ],
            [
                "\u2581knows",
                -9.318896293640137
            ],
            [
                "\u2581above",
                -9.042938232421875
            ],
            [
                "\u0437\u043d\u0430",
                -9.118256568908691
            ],
            [
                "\u2581\u0432\u0430\u0448",
                -8.986858367919922
            ],
            [
                "\u043e\u0439",
                -8.982239723205566
            ],
            [
                "\u2581common",
                -9.049234390258789
            ],
            [
                "\u2581\u041c\u0435\u043d\u0435",
                -9.013909339904785
            ],
            [
                "\u25818,",
                -9.50390911102295
            ],
            [
                "\u2581N",
                -9.607776641845703
            ],
            [
                "\u2581\u0445\u043e\u0447\u0430",
                -8.998335838317871
            ],
            [
                "\u2581\u0432\u043e\u0434\u0438",
                -8.997673988342285
            ],
            [
                "\u2581\u0441\u0438\u043b\u0443",
                -9.006303787231445
            ],
            [
                "ion",
                -9.377994537353516
            ],
            [
                "\u2581J",
                -9.471280097961426
            ],
            [
                "\u2581written",
                -9.0523681640625
            ],
            [
                "\u258124",
                -9.535039901733398
            ],
            [
                "\u2581Like",
                -9.056400299072266
            ],
            [
                "\u2581\u0437\u043c\u0456\u043d\u0438\u0442\u0438",
                -9.032649993896484
            ],
            [
                "\u2581\u0442\u0430\u043a\u0438",
                -9.093921661376953
            ],
            [
                "\u2581command",
                -9.057982444763184
            ],
            [
                "\u2581moved",
                -9.064905166625977
            ],
            [
                "\u2581further",
                -9.061120986938477
            ],
            [
                "\u2581Although",
                -9.06396770477295
            ],
            [
                "\u2581boy",
                -9.046504974365234
            ],
            [
                "\u2581\u0437\u0434\u0435\u0441\u044c",
                -9.048290252685547
            ],
            [
                "\u2581Luke",
                -9.063918113708496
            ],
            [
                "\u2581\u043b\u0435\u0433\u043a\u043e",
                -9.028745651245117
            ],
            [
                "\u2581\u0447\u0430\u0441\u043e\u043c",
                -9.0225830078125
            ],
            [
                "\u2581meetings",
                -9.079779624938965
            ],
            [
                "\u043e\u0432\u0430",
                -8.973252296447754
            ],
            [
                "\u2581pay",
                -9.044782638549805
            ],
            [
                "\u2581wasn",
                -9.08969497680664
            ],
            [
                "\u0441\u0456",
                -9.072310447692871
            ],
            [
                "\u2581righteous",
                -9.066313743591309
            ],
            [
                "\u2581gives",
                -9.144075393676758
            ],
            [
                "\u043d\u0438\u043a",
                -9.084709167480469
            ],
            [
                "\u2581likely",
                -9.07524585723877
            ],
            [
                "\u2581People",
                -9.065156936645508
            ],
            [
                "\u2581\u0437\u0434\u0430\u0454\u0442\u044c\u0441\u044f",
                -9.034453392028809
            ],
            [
                "\u2581\u0431\u0430\u0442\u044c\u043a\u043e",
                -9.020779609680176
            ],
            [
                "\u2581nation",
                -9.048318862915039
            ],
            [
                "\u2581\u043a\u0440\u0430\u0457\u043d\u0430\u0445",
                -9.013351440429688
            ],
            [
                "\u2581provide",
                -9.047577857971191
            ],
            [
                "\u2581\u043c\u043e\u0457",
                -9.02121639251709
            ],
            [
                "\u2581\u0435\u0441\u043b\u0438",
                -9.05650806427002
            ],
            [
                "\u2581\u0440\u0456\u0447",
                -9.050373077392578
            ],
            [
                "\u2581based",
                -9.073461532592773
            ],
            [
                "\u0435\u0439",
                -9.013980865478516
            ],
            [
                "\u2581counsel",
                -9.056194305419922
            ],
            [
                "\u2581respect",
                -9.056207656860352
            ],
            [
                "\u2581tried",
                -9.077598571777344
            ],
            [
                "\u2581desire",
                -9.058235168457031
            ],
            [
                "\u2581business",
                -9.077651023864746
            ],
            [
                "\u2581false",
                -9.098997116088867
            ],
            [
                "\u2581\u043d\u0430\u0437\u0430\u0434",
                -9.04974365234375
            ],
            [
                "\u2581\u044f\u043a\u0456\u0439",
                -9.06403923034668
            ],
            [
                "\u2581killed",
                -9.081452369689941
            ],
            [
                "\u2581evidence",
                -9.080371856689453
            ],
            [
                "\u2581\u0429\u0435",
                -9.037911415100098
            ],
            [
                "\u0430\u044e",
                -9.08602523803711
            ],
            [
                "\u2581field",
                -9.060220718383789
            ],
            [
                "\u2581\u0441\u0438\u043d",
                -9.135464668273926
            ],
            [
                "\u2581\u0434\u0435\u043a\u0456\u043b\u044c\u043a\u0430",
                -9.042471885681152
            ],
            [
                "\u2581\u041a\u0430\u043a",
                -9.072636604309082
            ],
            [
                "\u2581\u0440\u0430\u0437\u0443",
                -9.048309326171875
            ],
            [
                "\u2581return",
                -9.062607765197754
            ],
            [
                "\u2581\u0443\u0447\u0430\u0441\u0442\u044c",
                -9.020645141601562
            ],
            [
                "\u2581\u0434\u0430\u0442\u0438",
                -9.036982536315918
            ],
            [
                "\u2581equal",
                -9.064647674560547
            ],
            [
                "\u0431\u0456",
                -9.187922477722168
            ],
            [
                "\u043e\u043d",
                -8.985706329345703
            ],
            [
                "\u2581fire",
                -9.0763578414917
            ],
            [
                "\u2581image",
                -9.093202590942383
            ],
            [
                "\u2581involved",
                -9.092287063598633
            ],
            [
                "\u2581rule",
                -9.074076652526855
            ],
            [
                "\u2581current",
                -9.101877212524414
            ],
            [
                "\u2581According",
                -9.093660354614258
            ],
            [
                "\u2581THE",
                -9.093720436096191
            ],
            [
                "\u2581\u0414\u0430\u0432\u0438\u0434",
                -9.043429374694824
            ],
            [
                "\u2581choose",
                -9.078323364257812
            ],
            [
                "\u2581interest",
                -9.076964378356934
            ],
            [
                "\u2581\u0414\u044f\u043a\u0443\u044e",
                -9.075776100158691
            ],
            [
                "\u2581\u0432\u0430\u0440\u0442\u043e",
                -9.050200462341309
            ],
            [
                "\u2581act",
                -9.078049659729004
            ],
            [
                "\u043c\u0456\u043d",
                -9.282062530517578
            ],
            [
                "\u2581avoid",
                -9.096606254577637
            ],
            [
                "\u2581\u0440\u0435",
                -9.292501449584961
            ],
            [
                "\u2581beautiful",
                -9.10184383392334
            ],
            [
                "\u2581certainly",
                -9.102540969848633
            ],
            [
                "\u25816.",
                -9.628572463989258
            ],
            [
                "\u2581data",
                -9.118353843688965
            ],
            [
                "\u2581\u0422\u0456",
                -9.082886695861816
            ],
            [
                "\u2581\u044f\u043a\u0438\u043c\u0438",
                -9.072458267211914
            ],
            [
                "\u0441\u0442",
                -9.001906394958496
            ],
            [
                "\u2581report",
                -9.083154678344727
            ],
            [
                "\u2581ten",
                -9.083711624145508
            ],
            [
                "\u2581Ctrl",
                -9.77534008026123
            ],
            [
                "\u043a\u0456\u0432",
                -9.133915901184082
            ],
            [
                "\u0447\u0443",
                -9.125755310058594
            ],
            [
                "\u2581force",
                -9.087400436401367
            ],
            [
                "\u2581\u0441\u0442\u0430\u043d",
                -9.069143295288086
            ],
            [
                "\u2581walk",
                -9.084403038024902
            ],
            [
                "\u2581\u043f\u0456\u0437\u043d\u0456\u0448\u0435",
                -9.056978225708008
            ],
            [
                "\u2581Line",
                -9.088618278503418
            ],
            [
                "\u043a\u0430\u043c\u0438",
                -9.068315505981445
            ],
            [
                "\u2581\u0431\u0430\u0436\u0430\u043d\u043d\u044f",
                -9.056344985961914
            ],
            [
                "ur",
                -9.747808456420898
            ],
            [
                "\u2581color",
                -9.083114624023438
            ],
            [
                "\u0441\u0442\u0430",
                -9.126870155334473
            ],
            [
                "\u2581KDE",
                -9.7373046875
            ],
            [
                "\u2581\u043d\u0456\u0445\u0442\u043e",
                -9.070480346679688
            ],
            [
                "\u25817.",
                -9.56905746459961
            ],
            [
                "\u2581Creator",
                -9.112162590026855
            ],
            [
                "\u2581changed",
                -9.114456176757812
            ],
            [
                "\u2581\u043c\u043e\u0436\u043b\u0438\u0432\u0456\u0441\u0442\u044c",
                -9.049934387207031
            ],
            [
                "\u2581inside",
                -9.113285064697266
            ],
            [
                "\u2581similar",
                -9.108555793762207
            ],
            [
                "\u2581temple",
                -9.095026969909668
            ],
            [
                "\u2581\u0431\u044b\u043b\u043e",
                -9.102106094360352
            ],
            [
                "\u2581!",
                -9.720091819763184
            ],
            [
                "\u2581\u043f\u043e\u0441\u0442\u0456\u0439\u043d\u043e",
                -9.048582077026367
            ],
            [
                "\u2581While",
                -9.115889549255371
            ],
            [
                "\u2581guys",
                -9.136144638061523
            ],
            [
                "\u2581\u043e\u0434\u043d\u0438\u043c",
                -9.056281089782715
            ],
            [
                "\u0456\u044e",
                -9.186824798583984
            ],
            [
                "\u2581\u043f\u043e\u043a\u043b\u043e\u043d\u0456\u043d\u043d\u044f",
                -9.04040813446045
            ],
            [
                "\u2581goes",
                -9.119479179382324
            ],
            [
                "\u0423",
                -9.10692310333252
            ],
            [
                "\u043d\u044c",
                -9.151829719543457
            ],
            [
                "\u2581week",
                -9.100486755371094
            ],
            [
                "\u2581\u0430\u043f\u043e\u0441\u0442\u043e\u043b",
                -9.050124168395996
            ],
            [
                "\u2581\u043f\u0440\u0438\u0431\u043b\u0438\u0437\u043d\u043e",
                -9.063933372497559
            ],
            [
                "\u2581\u0432\u0456\u043a\u043d\u0430",
                -9.101658821105957
            ],
            [
                "\u2581\u0420\u043e\u0437",
                -9.06578540802002
            ],
            [
                "\u2581\u0432\u0438\u043a\u043e\u043d\u0443\u0432\u0430\u0442\u0438",
                -9.073424339294434
            ],
            [
                "\u2581Proverbs",
                -9.125476837158203
            ],
            [
                "\u2581anointed",
                -9.124763488769531
            ],
            [
                "\u2581i",
                -9.509773254394531
            ],
            [
                "\u2581game",
                -9.107815742492676
            ],
            [
                "\u2581\u0437\u0430\u043a\u043e\u043d",
                -9.089923858642578
            ],
            [
                "\u2581\u041f\u0435\u0440\u0435",
                -9.078173637390137
            ],
            [
                "\u2581box",
                -9.123941421508789
            ],
            [
                "\u2581\u0456\u0441\u0442\u043e\u0440\u0456\u0457",
                -9.07953929901123
            ],
            [
                "\u2581quite",
                -9.128302574157715
            ],
            [
                "\u2581Today",
                -9.129355430603027
            ],
            [
                "\u2581born",
                -9.130789756774902
            ],
            [
                "\u2581\u0443\u0432\u0430\u0433\u0438",
                -9.080744743347168
            ],
            [
                "\u2581\u0437\u043e\u0431\u0440\u0430\u0436\u0435\u043d\u043d\u044f",
                -9.100577354431152
            ],
            [
                "\u2581position",
                -9.11161994934082
            ],
            [
                "\u0435\u043d\u044c",
                -9.197964668273926
            ],
            [
                "\u2581\u0432\u0456\u0434\u043f\u043e\u0432\u0456\u0434\u044c",
                -9.089924812316895
            ],
            [
                "\u0449\u0430",
                -9.3248291015625
            ],
            [
                "\u2581\u043f\u0443\u043d\u043a\u0442",
                -9.102405548095703
            ],
            [
                "L",
                -9.834428787231445
            ],
            [
                "\u2581\u043f\u043e\u0434\u043e\u0431\u0430\u0454\u0442\u044c\u0441\u044f",
                -9.106860160827637
            ],
            [
                "\u2581serious",
                -9.135467529296875
            ],
            [
                "\u2581\u043c\u043e\u0433\u043e",
                -9.102034568786621
            ],
            [
                "\u2581\u043a\u043e\u0433\u0434\u0430",
                -9.121789932250977
            ],
            [
                "\u2581single",
                -9.135204315185547
            ],
            [
                "\u2581\u041f\u0440\u043e\u0441\u0442\u043e",
                -9.119904518127441
            ],
            [
                "\u044f\u0442",
                -9.068732261657715
            ],
            [
                "\u2581feelings",
                -9.154803276062012
            ],
            [
                "\u2581\u043f\u043e\u0440\u0430\u0434\u0438",
                -9.084388732910156
            ],
            [
                "\u2581Israelites",
                -9.144189834594727
            ],
            [
                "\u2581class",
                -9.170600891113281
            ],
            [
                "\u2581\u0442\u043e\u0431\u043e\u044e",
                -9.113879203796387
            ],
            [
                "\u2581therefore",
                -9.140250205993652
            ],
            [
                "\u2581#",
                -9.444318771362305
            ],
            [
                "\u2581Adam",
                -9.139281272888184
            ],
            [
                "\u258160",
                -9.785039901733398
            ],
            [
                "\u258133",
                -9.768378257751465
            ],
            [
                "\u2581\u041e\u043d\u0430",
                -9.144559860229492
            ],
            [
                "\u2581baby",
                -9.146293640136719
            ],
            [
                "\u2581%",
                -9.533934593200684
            ],
            [
                "\u2581Great",
                -9.146095275878906
            ],
            [
                "\u2581\u0431\u0456\u043b\u044c\u0448\u0456\u0441\u0442\u044c",
                -9.08714485168457
            ],
            [
                "\u2581\u0433\u043e\u0432\u043e\u0440\u0438\u0432",
                -9.10700798034668
            ],
            [
                "\u0430\u043d\u043d\u044f",
                -9.122504234313965
            ],
            [
                "\u2581option",
                -9.21807861328125
            ],
            [
                "\u2581listen",
                -9.127619743347168
            ],
            [
                "\u2581\u0434\u043e\u043f\u043e\u043c\u0430\u0433\u0430\u0454",
                -9.081721305847168
            ],
            [
                "\u2581\u0431\u0440\u0430\u0442\u0456\u0432",
                -9.09145450592041
            ],
            [
                "\u25814,",
                -9.799428939819336
            ],
            [
                "\u258112.",
                -9.62136459350586
            ],
            [
                "\u2581sound",
                -9.129373550415039
            ],
            [
                "\u2581\u0441\u0442\u0430\u043b\u043e\u0441\u044f",
                -9.118640899658203
            ],
            [
                "\u2581Maybe",
                -9.152746200561523
            ],
            [
                "\u2581\u0457\u0445\u043d\u0456\u0445",
                -9.09546947479248
            ],
            [
                "\u2581\u0432\u0430\u0448\u0456",
                -9.11010456085205
            ],
            [
                "\u2581seem",
                -9.150026321411133
            ],
            [
                "\u2581n",
                -9.557317733764648
            ],
            [
                "\u258113:",
                -9.526618003845215
            ],
            [
                "\u2581\u0432\u0441\u0451",
                -9.139812469482422
            ],
            [
                "\u0434\u0435",
                -9.034154891967773
            ],
            [
                "\u2581\u0434\u0435\u044f\u043a\u0438\u0445",
                -9.08507251739502
            ],
            [
                "\u25819.",
                -9.635846138000488
            ],
            [
                "\u2581modern",
                -9.156211853027344
            ],
            [
                "\u2581kept",
                -9.156231880187988
            ],
            [
                "\u043d\u0456\u0439",
                -9.09553337097168
            ],
            [
                "\u2581\u043f\u0440\u0430\u0446\u0456",
                -9.086297035217285
            ],
            [
                "\u0442\u0432\u043e\u0440",
                -9.204573631286621
            ],
            [
                "\u0435\u043b\u044c",
                -9.28916072845459
            ],
            [
                "\u043f\u0440\u043e",
                -9.2858304977417
            ],
            [
                "\u2581\u043c\u0430\u043b\u0430",
                -9.102499961853027
            ],
            [
                "\u2581entire",
                -9.154789924621582
            ],
            [
                "\u2581\u0441\u0438\u043b\u0438",
                -9.116303443908691
            ],
            [
                "\u2581\u0434\u0430",
                -9.027937889099121
            ],
            [
                "\u2581\u0413\u043e\u0441\u043f\u043e\u0434\u0430",
                -9.104300498962402
            ],
            [
                "\u2581\u0440\u0456\u0437\u043d\u0456",
                -9.096359252929688
            ],
            [
                "\u2581receive",
                -9.137706756591797
            ],
            [
                "\u2581couple",
                -9.141075134277344
            ],
            [
                "\u2581baptized",
                -9.15929126739502
            ],
            [
                "\u2581\u043e\u0434\u043d\u043e\u043c\u0443",
                -9.093849182128906
            ],
            [
                "\u25815,",
                -9.794651985168457
            ],
            [
                "\u2581gone",
                -9.1599760055542
            ],
            [
                "\u043b\u0435",
                -8.926008224487305
            ],
            [
                "\u2581several",
                -9.162602424621582
            ],
            [
                "\u2581\u043c\u0456\u043b\u044c\u0439\u043e\u043d\u0456\u0432",
                -9.121174812316895
            ],
            [
                "\u2581deal",
                -9.139082908630371
            ],
            [
                "\u0417",
                -9.239164352416992
            ],
            [
                "\u2581changes",
                -9.208391189575195
            ],
            [
                "\u2581\u0430\u043d\u0456",
                -9.1802339553833
            ],
            [
                "\u2581\u0431\u044b\u0442\u044c",
                -9.15285587310791
            ],
            [
                "\u2581taught",
                -9.16804027557373
            ],
            [
                "\u2581conduct",
                -9.165739059448242
            ],
            [
                "\u0439\u0442\u0435",
                -9.120099067687988
            ],
            [
                "\u2581seems",
                -9.188803672790527
            ],
            [
                "\u2581\u0441\u043b\u0456\u0432",
                -9.118552207946777
            ],
            [
                "\u2581promise",
                -9.154388427734375
            ],
            [
                "\u2581Watchtower",
                -9.170620918273926
            ],
            [
                "\u2581\u0436\u0456\u043d\u043a\u0430",
                -9.113595962524414
            ],
            [
                "\u2581\u043d\u0430\u0434\u0456\u044e",
                -9.129213333129883
            ],
            [
                "\u2581\u043f\u043e\u0432\u043d\u0456\u0441\u0442\u044e",
                -9.120603561401367
            ],
            [
                "\u2581selected",
                -9.172693252563477
            ],
            [
                "\u2581soul",
                -9.155837059020996
            ],
            [
                "\u0433\u0443",
                -9.237534523010254
            ],
            [
                "\u2581\u0437\u043d\u0430\u0454\u0448",
                -9.159132957458496
            ],
            [
                "\u2581\u043b\u044e\u0434\u0441\u0442\u0432\u0430",
                -9.125070571899414
            ],
            [
                "\u2581\u043f\u0440\u0430\u0446\u044e\u0432\u0430\u0442\u0438",
                -9.134933471679688
            ],
            [
                "\u2581\u0437\u0456\u0431\u0440\u0430\u043d\u043d\u044f",
                -9.10997486114502
            ],
            [
                "\u041e",
                -9.144229888916016
            ],
            [
                "\u2581Corinthians",
                -9.180523872375488
            ],
            [
                "\u0438\u0432\u0441\u044f",
                -9.155243873596191
            ],
            [
                "\u0454\u0442\u044c\u0441\u044f",
                -9.05036735534668
            ],
            [
                "\u2581\u0432\u0435\u043b\u0438\u043a\u0438\u0439",
                -9.13499927520752
            ],
            [
                "\u2581\u043c\u0443",
                -9.166304588317871
            ],
            [
                "\u2581save",
                -9.161177635192871
            ],
            [
                "\u2581behind",
                -9.179731369018555
            ],
            [
                "\u2581letter",
                -9.163793563842773
            ],
            [
                "\u2581\u043b\u044e\u0431\u043e\u0432\u0456",
                -9.140227317810059
            ],
            [
                "\u2581met",
                -9.291444778442383
            ],
            [
                "\u2581\u042f\u043a\u0430",
                -9.248971939086914
            ],
            [
                "\u2581\u0437\u043d\u0430\u0447\u0438\u0442\u044c",
                -9.149383544921875
            ],
            [
                "\u0442\u0438\u0441\u044f",
                -9.074707984924316
            ],
            [
                "\u2581wise",
                -9.18423080444336
            ],
            [
                "\u041c",
                -9.212340354919434
            ],
            [
                "\u0443\u044e\u0447\u0438",
                -9.262751579284668
            ],
            [
                "\u2581program",
                -9.163182258605957
            ],
            [
                "\u2581\u0414\u0430\u0432\u0430\u0439",
                -9.170741081237793
            ],
            [
                "\u258123",
                -9.729104995727539
            ],
            [
                "\u2581\u043f\u0440\u0430\u0432\u0434\u0438",
                -9.140697479248047
            ],
            [
                "\u2581\u0449\u0430\u0441\u0442\u044f",
                -9.146430015563965
            ],
            [
                "\u2581\u041e\u0441\u043a\u0456\u043b\u044c\u043a\u0438",
                -9.123309135437012
            ],
            [
                "\u258131",
                -9.818507194519043
            ],
            [
                "\u2581Roman",
                -9.171626091003418
            ],
            [
                "\u2581\u044f\u043a\u043e\u044e",
                -9.18036937713623
            ],
            [
                "\u2581\u0432\u0456\u0434\u0431\u0443\u0432\u0430\u0454\u0442\u044c\u0441\u044f",
                -9.153915405273438
            ],
            [
                "\u2581source",
                -9.169960975646973
            ],
            [
                "\u2581Timothy",
                -9.192112922668457
            ],
            [
                "You",
                -9.191862106323242
            ],
            [
                "\u2581short",
                -9.206672668457031
            ],
            [
                "\u2581suffering",
                -9.174711227416992
            ],
            [
                "\u043c\u0430\u043d",
                -9.268637657165527
            ],
            [
                "\u2581\u043f\u043e\u0433\u043b\u044f\u0434",
                -9.121060371398926
            ],
            [
                "\u2581effect",
                -9.170125961303711
            ],
            [
                "\u2581loved",
                -9.20176887512207
            ],
            [
                "\u0430\u043d\u0433\u043b",
                -9.106806755065918
            ],
            [
                "\u2581greater",
                -9.197376251220703
            ],
            [
                "\u2581\u0437\u043d\u0430\u0454\u043c\u043e",
                -9.167250633239746
            ],
            [
                "\u2581building",
                -9.182099342346191
            ],
            [
                "\u0448\u0430",
                -9.144509315490723
            ],
            [
                "\u2581\u0437\u0430\u0432\u0434\u0430\u043d\u043d\u044f",
                -9.156728744506836
            ],
            [
                "\u2581divine",
                -9.199583053588867
            ],
            [
                "\u0447\u0456",
                -9.260041236877441
            ],
            [
                "\u2581\u0432\u0456\u0434\u0441\u043e\u0442\u043a\u0456\u0432",
                -9.166430473327637
            ],
            [
                "\u2581teach",
                -9.197251319885254
            ],
            [
                "\u2581\u043f\u0440\u043e\u0433\u0440\u0430\u043c\u0430",
                -9.18698501586914
            ],
            [
                "\u2581button",
                -9.287363052368164
            ],
            [
                "\u2581benefit",
                -9.17994499206543
            ],
            [
                "\u2581French",
                -9.200824737548828
            ],
            [
                "\u2581sister",
                -9.185300827026367
            ],
            [
                "\u2581\u0456\u043d\u0448\u043e\u0433\u043e",
                -9.152627944946289
            ],
            [
                "\u2581\u0441\u043a\u0456\u043b\u044c\u043a\u0438",
                -9.158944129943848
            ],
            [
                "\u2581\u041c\u043d\u0435",
                -9.19029712677002
            ],
            [
                "\u258114.",
                -9.5880708694458
            ],
            [
                "\u0438\u0442\u044c\u0441\u044f",
                -9.167781829833984
            ],
            [
                "\u2581\u043f\u0440\u0438\u0439\u0434\u0435",
                -9.16407585144043
            ],
            [
                "\u258111.",
                -9.648796081542969
            ],
            [
                "\u2581\u043d\u0430\u0448\u0443",
                -9.179936408996582
            ],
            [
                "\u0446\u0456\u0432",
                -9.226395606994629
            ],
            [
                "\u2581perhaps",
                -9.207632064819336
            ],
            [
                "\u258132",
                -9.787989616394043
            ],
            [
                "\u2581story",
                -9.208724021911621
            ],
            [
                "\u2581\u0412\u0456\u0434\u043e\u043c\u043e\u0441\u0442\u0456",
                -9.184173583984375
            ],
            [
                "\u2581\u043a\u0456\u043d\u0446\u044f",
                -9.151450157165527
            ],
            [
                "\u2581Credit",
                -9.191091537475586
            ],
            [
                "\u2581material",
                -9.191004753112793
            ],
            [
                "\u2581created",
                -9.210267066955566
            ],
            [
                "\u2581takes",
                -9.342519760131836
            ],
            [
                "\u2581\u043f\u0440\u0430\u0432\u0438\u043b\u044c\u043d\u043e",
                -9.164748191833496
            ],
            [
                "\u0430\u0442\u044c",
                -9.223679542541504
            ],
            [
                "\u258170",
                -9.849081993103027
            ],
            [
                "\u2581Re",
                -9.521322250366211
            ],
            [
                "\u2581Acts",
                -9.2142915725708
            ],
            [
                "\u2581\u0441\u0442\u0430\u0454",
                -9.153969764709473
            ],
            [
                "\u2581Such",
                -9.214129447937012
            ],
            [
                "\u2581period",
                -9.199820518493652
            ],
            [
                "\u2581\u0441\u0442\u0430\u043b\u0430",
                -9.155842781066895
            ],
            [
                "\u0432\u043e",
                -9.170125007629395
            ],
            [
                "\u2581shown",
                -9.220036506652832
            ],
            [
                "\u2581\u0437\u0433\u0456\u0434\u043d\u043e",
                -9.169849395751953
            ],
            [
                "\u2581Catholic",
                -9.201482772827148
            ],
            [
                "\u2581\u043d\u0430\u0432\u0447\u0430\u043d\u043d\u044f",
                -9.158315658569336
            ],
            [
                "\u2581Their",
                -9.22156047821045
            ],
            [
                "\u2581\u0445\u043e\u0447",
[...]
